{"<|endoftext|>":0,"<|im_start|>":1,"<|im_end|>":2,"!":3,"\"":4,"#":5,"$":6,"%":7,"&":8,"'":9,"(":10,")":11,"*":12,"+":13,",":14,"-":15,".":16,"/":17,"0":18,"1":19,"2":20,"3":21,"4":22,"5":23,"6":24,"7":25,"8":26,"9":27,":":28,";":29,"<":30,"=":31,">":32,"?":33,"@":34,"A":35,"B":36,"C":37,"D":38,"E":39,"F":40,"G":41,"H":42,"I":43,"J":44,"K":45,"L":46,"M":47,"N":48,"O":49,"P":50,"Q":51,"R":52,"S":53,"T":54,"U":55,"V":56,"W":57,"X":58,"Y":59,"Z":60,"[":61,"\\":62,"]":63,"^":64,"_":65,"`":66,"a":67,"b":68,"c":69,"d":70,"e":71,"f":72,"g":73,"h":74,"i":75,"j":76,"k":77,"l":78,"m":79,"n":80,"o":81,"p":82,"q":83,"r":84,"s":85,"t":86,"u":87,"v":88,"w":89,"x":90,"y":91,"z":92,"{":93,"|":94,"}":95,"~":96,"¡":97,"¢":98,"£":99,"¤":100,"¥":101,"¦":102,"§":103,"¨":104,"©":105,"ª":106,"«":107,"¬":108,"®":109,"¯":110,"°":111,"±":112,"²":113,"³":114,"´":115,"µ":116,"¶":117,"·":118,"¸":119,"¹":120,"º":121,"»":122,"¼":123,"½":124,"¾":125,"¿":126,"À":127,"Á":128,"Â":129,"Ã":130,"Ä":131,"Å":132,"Æ":133,"Ç":134,"È":135,"É":136,"Ê":137,"Ë":138,"Ì":139,"Í":140,"Î":141,"Ï":142,"Ð":143,"Ñ":144,"Ò":145,"Ó":146,"Ô":147,"Õ":148,"Ö":149,"×":150,"Ø":151,"Ù":152,"Ú":153,"Û":154,"Ü":155,"Ý":156,"Þ":157,"ß":158,"à":159,"á":160,"â":161,"ã":162,"ä":163,"å":164,"æ":165,"ç":166,"è":167,"é":168,"ê":169,"ë":170,"ì":171,"í":172,"î":173,"ï":174,"ð":175,"ñ":176,"ò":177,"ó":178,"ô":179,"õ":180,"ö":181,"÷":182,"ø":183,"ù":184,"ú":185,"û":186,"ü":187,"ý":188,"þ":189,"ÿ":190,"Ā":191,"ā":192,"Ă":193,"ă":194,"Ą":195,"ą":196,"Ć":197,"ć":198,"Ĉ":199,"ĉ":200,"Ċ":201,"ċ":202,"Č":203,"č":204,"Ď":205,"ď":206,"Đ":207,"đ":208,"Ē":209,"ē":210,"Ĕ":211,"ĕ":212,"Ė":213,"ė":214,"Ę":215,"ę":216,"Ě":217,"ě":218,"Ĝ":219,"ĝ":220,"Ğ":221,"ğ":222,"Ġ":223,"ġ":224,"Ģ":225,"ģ":226,"Ĥ":227,"ĥ":228,"Ħ":229,"ħ":230,"Ĩ":231,"ĩ":232,"Ī":233,"ī":234,"Ĭ":235,"ĭ":236,"Į":237,"į":238,"İ":239,"ı":240,"Ĳ":241,"ĳ":242,"Ĵ":243,"ĵ":244,"Ķ":245,"ķ":246,"ĸ":247,"Ĺ":248,"ĺ":249,"Ļ":250,"ļ":251,"Ľ":252,"ľ":253,"Ŀ":254,"ŀ":255,"Ł":256,"ł":257,"Ń":258,"ï¼":259,"ä¸":260,"çļ":261,"çļĦ":262,"ï¼Į":263,"ãĢ":264,"ãĢĤ":265,"ä»":266,"äº":267,"åı":268,"æľ":269,"åħ":270,"è¿":271,"åĴ":272,"åĴĮ":273,"ä½":274,"æĪ":275,"åĪ":276,"å¤":277,"å®":278,"çĶ":279,"æĺ":280,"åľ":281,"åĬ":282,"ä¸Ģ":283,"æĸ":284,"è¯":285,"åĲ":286,"ç»":287,"ä¹":288,"ä»¥":289,"|>":290,"<|":291,"æĺ¯":292,"å°":293,"ãĢģ":294,"åŃ":295,"è®":296,"ï¼ļ":297,"åı¯":298,"ĥ½":299,"åľ¨":300,"en":301,"end":302,"äºº":303,"åº":304,"æĹ":305,"éĢ":306,"ä¸ª":307,"ä¼":308,"å¹":309,"æĿ":310,"å¸":311,"éĩ":312,"åĽ":313,"æķ":314,"æĪĳ":315,"èĥ½":316,"æľī":317,"åĮ":318,"å·":319,"è¡":320,"è§":321,"ä¸Ń":322,"å¯":323,"äºĨ":324,"è¿Ļ":325,"è¦":326,"è¦ģ":327,"te":328,"of":329,"åĩ":330,"xt":331,"text":332,"endof":333,"endoftext":334,"ä»¬":335,"çĶ¨":336,"åı¯ä»¥":337,"çļĦæ":338,"çİ":339,"åĨ":340,"å¼":341,"ä¸º":342,"çī":343,"å¾":344,"ç§":345,"é¢":346,"çŃ":347,"æĢ":348,"éĹ":349,"èĢ":350,"ä¸į":351,"ä¿":352,"æĬ":353,"å¥":354,"æī":355,"æŀ":356,"çĶŁ":357,"æ³":358,"åį":359,"çĽ":360,"èĩ":361,"å½":362,"æŃ":363,"éĿ":364,"æĿ¥":365,"çĲ":366,"im":367,"æł":368,"å¦":369,"æı":370,"æĹ¶":371,"æĽ":372,"åĵ":373,"æĦ":374,"ãĢĤ<|":375,"åŃ¦":376,"å¦Ĥ":377,"ä¾":378,"è¡Į":379,"æĸĩ":380,"åľ°":381,"è´":382,"æĪĲ":383,"æ°":384,"æĸ¹":385,"çŃī":386,"åĪ°":387,"å¯¹":388,"æĶ":389,"æĭ":390,"ä¼ļ":391,"å¿":392,"æĽ´":393,"åĳ":394,"æİ":395,"æĻ":396,"ä»ĸ":397,"èĩª":398,"åĪĨ":399,"éľ":400,"ä¸ĭ":401,"åİ":402,"|><|":403,"æĥ":404,"äºĽ":405,"äºİ":406,"æıĲ":407,"èµ":408,"ä½ľ":409,"å±":410,"æį":411,"æµ":412,"âĢ":413,"æĮ":414,"å·¥":415,"éľĢ":416,"åĬ¨":417,"å¤§":418,"ä¸Ĭ":419,"ä¸Ģä¸ª":420,"å¤ļ":421,"åĩº":422,"æķ°":423,"æ¯":424,"çĲĨ":425,"æĪĳä»¬":426,"çī©":427,"ä½ł":428,"åıĳ":429,"å¥½":430,"åĮĸ":431,"è¿ĩ":432,"å¹¶":433,"éĻ":434,"æĤ":435,"ä¿Ŀ":436,"é¢ĺ":437,"ç®":438,"çº":439,"è¿Ľ":440,"æ³ķ":441,"åĬĽ":442,"è¾":443,"å°ı":444,"æ´":445,"é£":446,"åŃĲ":447,"ç±":448,"å®ļ":449,"éĢļ":450,"éĿ¢":451,"ç«":452,"é«":453,"æĢ§":454,"æį®":455,"åŁ":456,"ç§į":457,"åĬł":458,"åºĶ":459,"åĲĮ":460,"éľĢè¦ģ":461,"é«ĺ":462,"ä½ĵ":463,"çİ°":464,"éģ":465,"åħ¶":466,"å°Ĩ":467,"èī":468,"ä½¿":469,"çļĦç":470,"åģ":471,"æŀľ":472,"æ²":473,"æĪĸ":474,"è§£":475,"æ¸":476,"åħ³":477,"æ±":478,"è½":479,"å¸¸":480,"éĩį":481,"éĹ®":482,"æĤ¨":483,"æľĢ":484,"ar":485,"åĽł":486,"ä¹Ł":487,"éĺ":488,"æľº":489,"æĬĢ":490,"å®ĥ":491,"st":492,"å®¶":493,"art":494,"start":495,"æľ¬":496,"æ¬":497,"åº¦":498,"ç±»":499,"åĵģ":500,"ä¹ĭ":501,"éĩı":502,"ç³":503,"éĹ´":504,"è¶":505,"æĦŁ":506,"çĤ":507,"çĦ":508,"å¹´":509,"èĢĮ":510,"æľ¯":511,"æĸ°":512,"ç¡":513,"å»":514,"å¢":515,"æĻº":516,"åĬ©":517,"å¾Ĺ":518,"è°":519,"æĺİ":520,"åĲĪ":521,"çľ":522,"èĤ":523,"ä¸ļ":524,"ç¨":525,"ä¹ł":526,"ç»ı":527,"çĦ¶":528,"ç¤":529,"éĹ®é¢ĺ":530,"åī":531,"è¡¨":532,"æĻºèĥ½":533,"å»º":534,"åħ¬":535,"ï¼Ł":536,"æĥħ":537,"å½±":538,"çĿ":539,"æŃ¤":540,"åĢ":541,"å®ŀ":542,"éĶ":543,"åĽ½":544,"åĪ¶":545,"ç¡®":546,"å¤©":547,"ä¸»":548,"èĬ":549,"è®¡":550,"è¯Ń":551,"èĢħ":552,"åĲİ":553,"ä½¿çĶ¨":554,"çŁ":555,"æĦı":556,"ä¸İ":557,"å¼ı":558,"æģ":559,"çĶµ":560,"ä¸ĢäºĽ":561,"èī²":562,"å¿ĥ":563,"æŁ":564,"ç¾":565,"æĮģ":566,"éļ":567,"ä¿¡":568,"å¸®":569,"ç½":570,"åĬ¡":571,"è¿Ľè¡Į":572,"ç´":573,"å±ķ":574,"ç©":575,"æ´»":576,"ä¾Ľ":577,"ç³»":578,"çİ¯":579,"äº§":580,"çĽ¸":581,"åħ¥":582,"çĤ¹":583,"æīĢ":584,"åħ¨":585,"çĸ":586,"âĢĿ":587,"âĢľ":588,"ç¨ĭ":589,"åŃ¦ä¹ł":590,"æĬĢæľ¯":591,"ä½Ĩ":592,"çĿĢ":593,"ä»¥ä¸ĭ":594,"éĥ½":595,"ç»Ļ":596,"è¯¥":597,"éķ":598,"å¸®åĬ©":599,"æ°´":600,"åı¯èĥ½":601,"é¡":602,"è¢":603,"åĮħ":604,"çķ":605,"äºĭ":606,"æķ°æį®":607,"çī¹":608,"å¾Ī":609,"åħ·":610,"éĥ":611,"è·":612,"æıĲä¾Ľ":613,"é¦":614,"é£Ł":615,"ä»İ":616,"è¿ĺ":617,"å¸Ĥ":618,"æ°Ķ":619,"å·±":620,"å¼Ģ":621,"çĽ®":622,"ä¾ĭ":623,"åĨħ":624,"èĩªå·±":625,"åĸ":626,"Ġ<|":627,"èģ":628,"å½ĵ":629,"æ·":630,"çĲĥ":631,"éĢļè¿ĩ":632,"åŀ":633,"éĢĤ":634,"åĿ":635,"ä»»":636,"äººå·¥":637,"åıĺ":638,"äº¤":639,"åĲį":640,"è®©":641,"åĻ":642,"å¤ĸ":643,"éĽ":644,"éĿŀ":645,"éħ":646,"ä¹Ī":647,"äººå·¥æĻºèĥ½":648,"è¿Ļä¸ª":649,"ç®Ĺ":650,"åľº":651,"æĹ¥":652,"ç¾İ":653,"éª":654,"åĻ¨":655,"åıĸ":656,"æķĪ":657,"éģĵ":658,"éĥ¨":659,"è¢«":660,"èº":661,"éķ¿":662,"çĥ":663,"éĢī":664,"è¿ĻäºĽ":665,"è´¨":666,"æ¯Ķ":667,"åıĬ":668,"éĤ":669,"æ¡":670,"æĺ¯ä¸Ģ":671,"æ¯ı":672,"æł¹":673,"æĪ·":674,"å¹³":675,"èº«":676,"åıĹ":677,"èĻ":678,"è®¾":679,"èĲ":680,"ä»ĸä»¬":681,"éĩĮ":682,"æŃ£":683,"å°ĳ":684,"åĪ©":685,"è¯´":686,"ç¬":687,"èµ·":688,"æģ¯":689,"åīį":690,"å¤Ħ":691,"æĹ¶éĹ´":692,"å®ī":693,"æ±Ĥ":694,"åĨ³":695,"éĩįè¦ģ":696,"ç»Ł":697,"ä»£":698,"åģ¥":699,"ç»ĵ":700,"æ®":701,"å¢ĥ":702,"æĥ³":703,"ä½į":704,"å§":705,"éŁ":706,"æ¶":707,"åĵį":708,"éĿŀå¸¸":709,"ç«ł":710,"æł¹æį®":711,"åķ":712,"æº":713,"åŀĭ":714,"æ³¨":715,"æĭ¬":716,"è¯į":717,"ä¾ĭå¦Ĥ":718,"æľŁ":719,"ç¼":720,"æĢ»":721,"è®®":722,"åĮ»":723,"åıĳå±ķ":724,"æıĲé«ĺ":725,"å¤Ł":726,"é£İ":727,"é¥":728,"è¯·":729,"æĸĩæľ¬":730,"æłĩ":731,"ç¤¾":732,"åı¥":733,"æĸĩç«ł":734,"åĪ«":735,"æīĭ":736,"é¢Ĩ":737,"ä¸įåĲĮ":738,"ï¼ī":739,"èį":740,"åĳĺ":741,"å¦Ĥæŀľ":742,"ä½ķ":743,"å½±åĵį":744,"è¯Ĩ":745,"èµĦ":746,"åĮħæĭ¬":747,"ç§ĳ":748,"æĶ¾":749,"ï¼Ī":750,"è¿°":751,"çĭ":752,"æĹł":753,"å®¹":754,"åİ»":755,"è¨":756,"èĭ":757,"å¼º":758,"æľį":759,"çĪ":760,"å·¥ä½ľ":761,"çľĭ":762,"æ»":763,"ç¥":764,"çł":765,"çģ":766,"åºĶçĶ¨":767,"éŁ³":768,"åĽŀ":769,"åĪĽ":770,"åı¸":771,"æ¨":772,"ä»¶":773,"çİ¯å¢ĥ":774,"åĩı":775,"å°±":776,"çĹ":777,"å®¢":778,"èĪ":779,"åŁŁ":780,"æºĲ":781,"å¯¼":782,"æµģ":783,"è½¦":784,"å£":785,"æĭ©":786,"éĢīæĭ©":787,"åº·":788,"çŁ¥":789,"èĥ":790,"æ®µ":791,"æĸŃ":792,"è§Ĥ":793,"è°ĥ":794,"æķĻ":795,"æĬ¤":796,"æŃ¥":797,"ä¹Ĳ":798,"èĬĤ":799,"åĽłæŃ¤":800,"ä¿¡æģ¯":801,"éĤ£":802,"åĮº":803,"ç®¡":804,"çĶŁæ´»":805,"æ¬¡":806,"æľª":807,"ä¼ł":808,"é»":809,"æĸ¹å¼ı":810,"èĥ½å¤Ł":811,"å½¢":812,"æ¡Ī":813,"åģ¥åº·":814,"çĻ":815,"é©":816,"è¨Ģ":817,"ä»Ģ":818,"äººç±»":819,"æĸĻ":820,"åŃĹ":821,"çĶ±":822,"æ·±":823,"ä¸ŃçļĦ":824,"åħ¬åı¸":825,"èĢĥ":826,"è±":827,"æĽ´åĬł":828,"åĨĻ":829,"è¯Ŀ":830,"ä¸¤":831,"ç²":832,"æĽ´å¥½":833,"çĸĹ":834,"è¿Ĳ":835,"åŁº":836,"00":837,"æ¨¡":838,"éĢł":839,"æĶ¹":840,"ç»Ħ":841,"æł·":842,"åįķ":843,"è¾¾":844,"æľĪ":845,"åĲĳ":846,"ä»Ģä¹Ī":847,"ä¼ĺ":848,"å»ºè®®":849,"çİĩ":850,"æ¸¸":851,"ç´ł":852,"éĴ":853,"æĸ¹æ³ķ":854,"è®º":855,"ç¯":856,"æł¼":857,"åıª":858,"å¢ŀ":859,"æŀĲ":860,"å®ĥä»¬":861,"é¢ĨåŁŁ":862,"åĲĮæĹ¶":863,"èĦ":864,"åĩĨ":865,"åĲĦ":866,"æİ¨":867,"èİ":868,"ä¸ī":869,"èı":870,"åĪĨæŀĲ":871,"è®¤":872,"åºĶè¯¥":873,"ç«ĭ":874,"å¸¦":875,"æŀģ":876,"éªĮ":877,"åħĪ":878,"æµĭ":879,"ä»·":880,"æµ·":881,"æĸ¹éĿ¢":882,"æĮĩ":883,"éĩĳ":884,"è§Ĩ":885,"å¤ĩ":886,"æ¼":887,"å·²":888,"åİĨ":889,"åħ¶ä»ĸ":890,"åİŁ":891,"çĬ":892,"åĸľ":893,"æ²¡":894,"é¢Ħ":895,"æľºåĻ¨":896,"åħĥ":897,"è£":898,"è¯ķ":899,"å¤ª":900,"åı£":901,"ä¸ĸ":902,"çŃĶ":903,"èĩªçĦ¶":904,"åģļ":905,"å®Į":906,"æī¾":907,"æ¬¢":908,"å¹¿":909,"æĸĩåĮĸ":910,"æķ´":911,"æĻ¯":912,"äººä»¬":913,"åĨµ":914,"æĺŁ":915,"åĪĴ":916,"æĶ¯":917,"åħī":918,"ç¤º":919,"ç¦":920,"AI":921,"åŃĺ":922,"å¤ĦçĲĨ":923,"ç½ĳ":924,"åĳ³":925,"åŁİ":926,"åħ±":927,"äºĨè§£":928,"æ¸ħ":929,"èĩªå·±çļĦ":930,"ç¯ĩ":931,"åĽłä¸º":932,"çĮ":933,"éĵ":934,"æİ¥":935,"åıį":936,"ç©º":937,"å¿«":938,"å°ıæĺİ":939,"èĩ´":940,"è§Ħ":941,"åı¯ä»¥å¸®åĬ©":942,"æĪĺ":943,"è¶Ĭ":944,"åĬŁ":945,"å®īåħ¨":946,"å¼ķ":947,"ç³»ç»Ł":948,"æľªæĿ¥":949,"ä¿ĿæĬ¤":950,"æĢģ":951,"è®¸":952,"è¯Ħ":953,"çķĮ":954,"åıĭ":955,"éĻ©":956,"é¡¹":957,"å¦Ĥä½ķ":958,"åĩıå°ĳ":959,"å¤į":960,"ç®Ģ":961,"åĢ¼":962,"çº¿":963,"åı¥åŃĲ":964,"ä¸ªäºº":965,"ä¹ī":966,"çĶµå½±":967,"æ£":968,"ä¸Ķ":969,"èĬ±":970,"ä¿ĿæĮģ":971,"éĩĩ":972,"ãĢĭ":973,"ãĢĬ":974,"åķĨ":975,"è¯Ńè¨Ģ":976,"èĮ":977,"çŃĸ":978,"éĺŁ":979,"çĹħ":980,"é¦ĸ":981,"åĩł":982,"è®¡ç®Ĺ":983,"éĢŁ":984,"æĺ¯ä¸Ģä¸ª":985,"æ²¡æľī":986,"å§ĭ":987,"ä»»åĬ¡":988,"äº§åĵģ":989,"åĪĻ":990,"20":991,"çĪ±":992,"ç©¶":993,"èĻĳ":994,"æľįåĬ¡":995,"æĽ´å¥½åľ°":996,"ç§¯":997,"ç¡®ä¿Ŀ":998,"è¶³":999,"æĸ½":1000,"ç¬¬":1001,"ç»Ń":1002,"å¥½çļĦ":1003,"èıľ":1004,"è·¯":1005,"é¸":1006,"æĳ":1007,"è§£åĨ³":1008,"éħį":1009,"ä¸ŃåĽ½":1010,"æĶ¿":1011,"æĶ¶":1012,"çħ":1013,"çļĦæĥ":1014,"åħį":1015,"æıı":1016,"ç»ĥ":1017,"çĶŁæĪĲ":1018,"ä»¥åıĬ":1019,"ä¾¿":1020,"æİĴ":1021,"åĨħå®¹":1022,"åıĤ":1023,"å¥¹":1024,"ç¤¾ä¼ļ":1025,"æĹħ":1026,"åĪĹ":1027,"çłĶ":1028,"çº¢":1029,"æĢĿ":1030,"è¾ĥ":1031,"è½»":1032,"æĽ´å¤ļ":1033,"è¿ĳ":1034,"éļı":1035,"èĥ½åĬĽ":1036,"èĩ³":1037,"åħĭ":1038,"ä½Ĩæĺ¯":1039,"åĶ":1040,"çĶ¨æĪ·":1041,"è±¡":1042,"éĽĨ":1043,"ï¼Ľ":1044,"åĳĬ":1045,"éĺ³":1046,"åı²":1047,"ç®¡çĲĨ":1048,"ä¹¦":1049,"æľĽ":1050,"åĸľæ¬¢":1051,"ç»Ĩ":1052,"ä¸»è¦ģ":1053,"ç¥ŀ":1054,"èĤ²":1055,"æ»¡":1056,"è¥":1057,"åºı":1058,"ä¹ĭä¸Ģ":1059,"çĽ´":1060,"æ¸©":1061,"è®¸å¤ļ":1062,"èĳ":1063,"æĺ¯ä¸Ģç§į":1064,"æķħ":1065,"å±±":1066,"æŀĦ":1067,"è§ģ":1068,"èģĶ":1069,"èº«ä½ĵ":1070,"è¥¿":1071,"æ¤":1072,"åĽ¾":1073,"é¤":1074,"æ°ĳ":1075,"è§ī":1076,"æŁ¥":1077,"è®°":1078,"åĢĻ":1079,"åĪ°äºĨ":1080,"è§Ĵ":1081,"æĿĲ":1082,"æļ":1083,"ç»´":1084,"åĥ":1085,"éĶ®":1086,"çĬ¶":1087,"æĺĵ":1088,"æ´»åĬ¨":1089,"çº¦":1090,"åĽ¢":1091,"æ²»":1092,"åĪĨç±»":1093,"é¤Ĳ":1094,"è®¡åĪĴ":1095,"å²":1096,"å·²ç»ı":1097,"æııè¿°":1098,"é¥®":1099,"äºĴ":1100,"æĪĳä»¬çļĦ":1101,"ä»½":1102,"æĪĲä¸º":1103,"å¸Ĥåľº":1104,"è¯»":1105,"æİ§":1106,"çĽ®æłĩ":1107,"ä¸įæĸŃ":1108,"ä½İ":1109,"ä»¥ä¸ĭæĺ¯":1110,"èİ·":1111,"åĮ»çĸĹ":1112,"ä¹ĭéĹ´":1113,"ä¸ĸçķĮ":1114,"åĲ¸":1115,"å®¢æĪ·":1116,"çĲĨè§£":1117,"å¥³":1118,"æĸ¯":1119,"éĢļå¸¸":1120,"ä¸ĵ":1121,"çļĦäºº":1122,"ç¢":1123,"çľŁ":1124,"éļ¾":1125,"èĢģ":1126,"åĲ¦":1127,"èĲ¥":1128,"å¸Ī":1129,"è¿ĲåĬ¨":1130,"å®ŀçİ°":1131,"æħ":1132,"è®¾è®¡":1133,"çİ¯ä¿Ŀ":1134,"çĻ½":1135,"åŁİå¸Ĥ":1136,"çļĦæĬ":1137,"æĬ¥":1138,"æĤ¨çļĦ":1139,"è´¹":1140,"åı¯èĥ½ä¼ļ":1141,"åħ³éĶ®":1142,"ç¿":1143,"æŃ¤å¤ĸ":1144,"éģ¿":1145,"çĥŃ":1146,"è¿ĩç¨ĭ":1147,"å¤´":1148,"æ³¨æĦı":1149,"æĿ¡":1150,"çļĦæĥħ":1151,"10":1152,"è¯ģ":1153,"æ¶Ī":1154,"äºĮ":1155,"å¯¼èĩ´":1156,"åĥı":1157,"ç®Ĺæ³ķ":1158,"çłĶç©¶":1159,"å®ļçļĦ":1160,"æŁĲ":1161,"åĭ":1162,"å°½":1163,"åıĺåĮĸ":1164,"ç²¾":1165,"èĢĥèĻĳ":1166,"éľĢæ±Ĥ":1167,"èĤī":1168,"éĶĢ":1169,"åĨį":1170,"è´¨éĩı":1171,"æĲ":1172,"åį³":1173,"æľĭ":1174,"å¤±":1175,"åħħ":1176,"è¿Ļç§į":1177,"å¼Ģå§ĭ":1178,"ç³ĸ":1179,"è®Ń":1180,"åħ³äºİ":1181,"è¶£":1182,"åĲ«":1183,"åħ·æľī":1184,"æİ¢":1185,"åĲ¬":1186,"å¼ł":1187,"æľĭåıĭ":1188,"éŁ³ä¹Ĳ":1189,"ä½łçļĦ":1190,"ä¸Ģç§į":1191,"èĲ½":1192,"ä»İèĢĮ":1193,"è£ħ":1194,"åĬ¿":1195,"æ¼Ķ":1196,"åĳ½":1197,"å¯¹äºİ":1198,"ä¸»é¢ĺ":1199,"äº«":1200,"ï¼ģ":1201,"å¡":1202,"è´Ń":1203,"å¸¦æĿ¥":1204,"åĬ¨çī©":1205,"åħ»":1206,"ç½®":1207,"æĬķ":1208,"æīĵ":1209,"çīĩ":1210,"éĻ¤":1211,"éģ¿åħį":1212,"éĩįè¦ģçļĦ":1213,"å¾ĭ":1214,"å¿ħ":1215,"è½¬":1216,"æĪĸèĢħ":1217,"æ¨¡åŀĭ":1218,"åĳ¨":1219,"ç´¢":1220,"ç±³":1221,"åıĳçİ°":1222,"åİĨåı²":1223,"åħ´":1224,"ä»Ĭ":1225,"éĶĻ":1226,"å¯»":1227,"åİĭ":1228,"éĹ¨":1229,"å¸ĥ":1230,"èĽ":1231,"æĥħåĨµ":1232,"èīº":1233,"èĩªåĬ¨":1234,"æķĻèĤ²":1235,"ä¸įåĲĮçļĦ":1236,"åįĹ":1237,"çļĦå½±åĵį":1238,"ä¹°":1239,"éĻħ":1240,"åŃ¦çĶŁ":1241,"åı¯ä»¥éĢļè¿ĩ":1242,"æīį":1243,"åįĩ":1244,"èģĮ":1245,"ç§°":1246,"Â·":1247,"è°¢":1248,"è®¤ä¸º":1249,"19":1250,"æķĪçİĩ":1251,"åĽŀçŃĶ":1252,"å¸Į":1253,"ä¼ģ":1254,"çŁŃ":1255,"åĲĦç§į":1256,"è¡Įä¸º":1257,"å¢ŀåĬł":1258,"çı":1259,"åĲĹ":1260,"çĭ¬":1261,"åħ¨çĲĥ":1262,"åĵª":1263,"ç§¯æŀģ":1264,"çĽ¸åħ³":1265,"åĪ©çĶ¨":1266,"é²":1267,"èħ":1268,"åħ¶ä¸Ń":1269,"æĿ¾":1270,"åĽ´":1271,"ĠĠ":1272,"çª":1273,"ä»ħ":1274,"å¨":1275,"çĭĹ":1276,"æ¬¾":1277,"éĢĤåĲĪ":1278,"åħ³ç³»":1279,"æĶ¯æĮģ":1280,"åı¤":1281,"åı°":1282,"æ¢":1283,"å»ºç«ĭ":1284,"çļĦæĦ":1285,"æľºåĻ¨åŃ¦ä¹ł":1286,"ç§ĳæĬĢ":1287,"é¦Ļ":1288,"éĺ²":1289,"è¾ĵ":1290,"äº§çĶŁ":1291,"å¾·":1292,"å¯Į":1293,"æĺ¯åĲ¦":1294,"åºŃ":1295,"ä¸½":1296,"æĴ":1297,"åŃ©":1298,"å®ĮæĪĲ":1299,"è¯ĨåĪ«":1300,"é£İéĻ©":1301,"çļĦåıĳå±ķ":1302,"åľ°çĲĥ":1303,"ä¸¤ä¸ª":1304,"å°Ŀ":1305,"é»ĳ":1306,"ä¼ģä¸ļ":1307,"æĪĳä»¬åı¯ä»¥":1308,"å¾Īå¤ļ":1309,"æĪı":1310,"ªæĸ½":1311,"æĵ":1312,"æĸ°çļĦ":1313,"åįģ":1314,"è¡¨è¾¾":1315,"å¯Ĩ":1316,"ç¼ĸ":1317,"åĪ¶å®ļ":1318,"ä¸ľ":1319,"æķħäºĭ":1320,"åŃĺåľ¨":1321,"æ¯ıä¸ª":1322,"åĮĹ":1323,"ç¦»":1324,"é¦ĸåħĪ":1325,"çĶ¨äºİ":1326,"èĭ±":1327,"ä»ĭ":1328,"æĥħæĦŁ":1329,"æĪ¿":1330,"å·§":1331,"åħ·ä½ĵ":1332,"éĻį":1333,"åı·":1334,"æŁĵ":1335,"èŀ":1336,"èµĽ":1337,"çļĦæĢ":1338,"èµĦæºĲ":1339,"åĸĦ":1340,"äº¤éĢļ":1341,"æĬĬ":1342,"ç§ĳåŃ¦":1343,"åĽ¢éĺŁ":1344,"ĳæĪĺ":1345,"å£«":1346,"å°Ķ":1347,"ç¡®å®ļ":1348,"éĻĲ":1349,"æİ§åĪ¶":1350,"èŃ":1351,"å¹¶ä¸Ķ":1352,"æĿİ":1353,"ç«Ļ":1354,"æ²¹":1355,"çħ§":1356,"èĽĭ":1357,"æĢ»ä¹ĭ":1358,"åĽĽ":1359,"åĲĥ":1360,"çĽĳ":1361,"ç»Ī":1362,"äºī":1363,"ä¼Ĺ":1364,"å®¶åºŃ":1365,"äººçļĦ":1366,"éĩĬ":1367,"æĭī":1368,"å¾ĹåĪ°":1369,"éĩĩåıĸ":1370,"é©¬":1371,"å¹²":1372,"æĸ¹æ¡Ī":1373,"æĢ§åĴĮ":1374,"åĽŃ":1375,"æľĢåĲİ":1376,"æıĲåıĸ":1377,"å¤§çļĦ":1378,"çĽĬ":1379,"åįİ":1380,"æ³Ľ":1381,"æµİ":1382,"ä¿®":1383,"è´Ł":1384,"å¸ĮæľĽ":1385,"æŀĹ":1386,"æŃĮ":1387,"ä¸Ģèµ·":1388,"éĤ£ä¹Ī":1389,"ä»ĸä»¬çļĦ":1390,"çģ«":1391,"è¿ľ":1392,"æľīæķĪ":1393,"èŀį":1394,"çİĭ":1395,"Ġ=":1396,"å¤ªéĺ³":1397,"çļĦæ°":1398,"å®³":1399,"çº§":1400,"å£°":1401,"åĦ":1402,"åĮ»çĶŁ":1403,"åºľ":1404,"å±ħ":1405,"çĶ»":1406,"åŃ£":1407,"æĪĲåĬŁ":1408,"äºĨä¸Ģ":1409,"åĩĨç¡®":1410,"åł":1411,"çĨ":1412,"æ¿":1413,"éĥ¨åĪĨ":1414,"çļĦéĹ®é¢ĺ":1415,"çķ¥":1416,"å¾ģ":1417,"åĽłç´ł":1418,"ä½ľä¸º":1419,"ç»ľ":1420,"è®Ńç»ĥ":1421,"èī¯":1422,"ç»ıæµİ":1423,"å¹¿æ³Ľ":1424,"åı¦":1425,"åĬłåħ¥":1426,"æīĢæľī":1427,"è¿Ļæł·":1428,"åĿĩ":1429,"åĪ¶ä½ľ":1430,"èİ·å¾Ĺ":1431,"å®¤":1432,"å¿µ":1433,"æİªæĸ½":1434,"äºļ":1435,"æĦŁåĪ°":1436,"æĮģç»Ń":1437,"çĮ«":1438,"æ¤į":1439,"çīĮ":1440,"é¼":1441,"çĦ¶åĲİ":1442,"æĿĥ":1443,"ä¼łç»Ł":1444,"è¡¨çİ°":1445,"çŃīçŃī":1446,"çĶ·":1447,"æ¹":1448,"ä¸Ģä¸ĭ":1449,"éļıçĿĢ":1450,"ç¤¾äº¤":1451,"åĪĩ":1452,"è¾¹":1453,"æĿĤ":1454,"åĶ®":1455,"èĳĹ":1456,"ä½ľçĶ¨":1457,"èµ°":1458,"é¢Ħæµĭ":1459,"æķ°åŃĹ":1460,"ç»ĵæŀľ":1461,"å¾Ģ":1462,"è¯¯":1463,"èĥ½æºĲ":1464,"æĽ´å¤ļçļĦ":1465,"é¥®é£Ł":1466,"å°Ŀè¯ķ":1467,"Ġ1":1468,"åĩºçİ°":1469,"åª":1470,"æĪĳä»¬éľĢè¦ģ":1471,"ç»į":1472,"æĭ¥":1473,"å·¥åħ·":1474,"çļĦä¸Ģ":1475,"Ġ-":1476,"ä¼°":1477,"åħ³æ³¨":1478,"éħĴ":1479,"æ¦":1480,"è®¡ç®Ĺæľº":1481,"èīºæľ¯":1482,"æ¯Ķå¦Ĥ":1483,"æĿ¥è¯´":1484,"é±":1485,"æ£Ģ":1486,"é»Ħ":1487,"æĬķèµĦ":1488,"ç¯ĩæĸĩç«ł":1489,"æ¿Ģ":1490,"ä»·åĢ¼":1491,"ä½ĵéªĮ":1492,"é±¼":1493,"ç½ĳç»ľ":1494,"ä»¥ä¸Ĭ":1495,"æĹłæ³ķ":1496,"ä»ĭç»į":1497,"é£Łçī©":1498,"å¯¹è¯Ŀ":1499,"æĤ¨åı¯ä»¥":1500,"æĿĲæĸĻ":1501,"æīĢä»¥":1502,"é¾":1503,"æ¸¸æĪı":1504,"çļĦéĩįè¦ģ":1505,"åĬĽåĴĮ":1506,"åıĹåĪ°":1507,"æī¾åĪ°":1508,"åĬŁèĥ½":1509,"æĪĳçļĦ":1510,"è¶ħ":1511,"è®¨":1512,"ä¸įæĺ¯":1513,"åĦ¿":1514,"å±ŀ":1515,"çİ©":1516,"çļĦåºĶçĶ¨":1517,"çļĦæĺ¯":1518,"é¸¡":1519,"åıĳçĶŁ":1520,"ä»ĸçļĦ":1521,"äºĶ":1522,"å±Ĥ":1523,"çĶŁäº§":1524,"¡æŁĵ":1525,"èįĲ":1526,"çļĦæİ":1527,"éĻ¢":1528,"ä»»ä½ķ":1529,"åįı":1530,"é¢ľ":1531,"èį¯":1532,"è´£":1533,"è¯ī":1534,"æĺ¾":1535,"æĮī":1536,"çļĦæĬĢ":1537,"æĮĳæĪĺ":1538,"åªĴ":1539,"è¦ģæ±Ĥ":1540,"åĪĽéĢł":1541,"æŃ£åľ¨":1542,"ä¹Łæĺ¯":1543,"äººå·¥æĻºèĥ½æĬĢæľ¯":1544,"è®¾å¤ĩ":1545,"æľºä¼ļ":1546,"éĹ»":1547,"ç»ĩ":1548,"å¤§éĩı":1549,"çİ°åľ¨":1550,"è¡¨ç¤º":1551,"ä¼¼":1552,"åĬ±":1553,"èŃ¦":1554,"åĿĹ":1555,"é£ŀ":1556,"æĶ¿åºľ":1557,"çļĦåľ°":1558,"ä¸įä»ħ":1559,"æį¢":1560,"èĮĥ":1561,"çŁ¥éģĵ":1562,"ç¬¦":1563,"éª¤":1564,"èĭ¹":1565,"çīĽ":1566,"èĭ¹æŀľ":1567,"è¯Ĺ":1568,"ä»¥ä¸ĭæĺ¯ä¸ĢäºĽ":1569,"éĥ½æĺ¯":1570,"è§£éĩĬ":1571,"ä¹ĭéĹ´çļĦ":1572,"çİ°ä»£":1573,"è®²":1574,"åĬª":1575,"èįī":1576,"æĻļ":1577,"è¡¡":1578,"åĩłä¸ª":1579,"åŃ©åŃĲ":1580,"æĹ©":1581,"éģĩ":1582,"çŃĳ":1583,"æİ¨èįĲ":1584,"ä¸ĵä¸ļ":1585,"èĴ":1586,"æ²»çĸĹ":1587,"çĳ":1588,"æ½":1589,"çĥ¤":1590,"ä¸¥":1591,"æ°ĶåĢĻ":1592,"çŃĶæ¡Ī":1593,"ç®Ģåįķ":1594,"ä¿ĥ":1595,"å¾ħ":1596,"åĽ°":1597,"çĶ±äºİ":1598,"åĲĪä½ľ":1599,"çŁ¥è¯Ĩ":1600,"éĴŁ":1601,"ä»¥ä¾¿":1602,"å·´":1603,"è¿ĺæľī":1604,"æłĳ":1605,"¾çĹħ":1606,"è¯Ħä¼°":1607,"ä¸ĩ":1608,"å»ºçŃĳ":1609,"åĤ":1610,"éĺħ":1611,"çŁ³":1612,"ä¸ºäºĨ":1613,"ç¼º":1614,"æ±¡æŁĵ":1615,"è¡Įä¸ļ":1616,"çļĦæĶ":1617,"åİħ":1618,"æľĢè¿ĳ":1619,"æĤ£":1620,"åªĴä½ĵ":1621,"èµ·æĿ¥":1622,"çĶŁçī©":1623,"é¢ľèī²":1624,"è¿½":1625,"æĹħæ¸¸":1626,"æ©":1627,"å®Ŀ":1628,"éº":1629,"è´Ńä¹°":1630,"ç¦ı":1631,"å¤ı":1632,"å¤įæĿĤ":1633,"çªģ":1634,"é²ľ":1635,"è´¢":1636,"æ´ģ":1637,"åĪ»":1638,"ä¸Ģæ®µ":1639,"è¿ŀ":1640,"çĵ":1641,"ç»Ļåĩº":1642,"æ¯Ķè¾ĥ":1643,"é¡¹çĽ®":1644,"å¼Ĥ":1645,"åĨĽ":1646,"èĵ":1647,"ç»¿":1648,"å¾®":1649,"åºĹ":1650,"ä½ı":1651,"ç±»åŀĭ":1652,"ç»ĵæŀĦ":1653,"å¥¶":1654,"éļĲ":1655,"ä¸°":1656,"ãĢĤâĢĿ":1657,"ç¾İåĽ½":1658,"èĩªçĦ¶è¯Ńè¨Ģ":1659,"æ¥":1660,"ç§ģ":1661,"ä¹Łåı¯ä»¥":1662,"åĩ»":1663,"å¿ĥçĲĨ":1664,"è½¯":1665,"åĨ³çŃĸ":1666,"èĶ":1667,"ç»ıéªĮ":1668,"æĭ¥æľī":1669,"æķĪæŀľ":1670,"å¤©æ°Ķ":1671,"åī§":1672,"æĿ¥è¶Ĭ":1673,"åĴĸ":1674,"å·®":1675,"åĪ¤":1676,"çļĦæł":1677,"ŁéĢļ":1678,"èĥĮ":1679,"è¶ĬæĿ¥è¶Ĭ":1680,"äº¬":1681,"åľŁ":1682,"æĽ²":1683,"æīįèĥ½":1684,"éĨ":1685,"åĳ¼":1686,"åĵģçīĮ":1687,"ä¸ĬçļĦ":1688,"åĿļ":1689,"èĪĴ":1690,"ç»Ħç»ĩ":1691,"ä½ľåĵģ":1692,"çī¹å¾ģ":1693,"ä»·æł¼":1694,"çĸ¾çĹħ":1695,"äº²":1696,"æķ£":1697,"æĹħè¡Į":1698,"åį¡":1699,"æļĸ":1700,"åıĪ":1701,"æ´ĭ":1702,"æĹı":1703,"å¥ĩ":1704,"ç´§":1705,"è°ĥæķ´":1706,"éĺħè¯»":1707,"æķ°éĩı":1708,"ç»Ļå®ļçļĦ":1709,"éĿĻ":1710,"ä¸Ģç¯ĩ":1711,"çĶŁæĢģ":1712,"è§Ĵèī²":1713,"å·ŀ":1714,"ĺè¦ģ":1715,"é£İæł¼":1716,"å°ıè¯´":1717,"æľºåĻ¨äºº":1718,"åĬªåĬĽ":1719,"çļĦæĸ¹æ³ķ":1720,"å½ķ":1721,"å½Ĵ":1722,"å°Ĭ":1723,"æŃ¢":1724,"ä¼ĺåĮĸ":1725,"ç¨ĭåºı":1726,"è¿ĩç¨ĭä¸Ń":1727,"åķ¡":1728,"ç¾¤":1729,"çĶŁåĳ½":1730,"åĩĨå¤ĩ":1731,"æł¡":1732,"æĭŁ":1733,"æĻ®":1734,"è¯Ĭ":1735,"æ±½":1736,"æ³¢":1737,"äº¤æµģ":1738,"åħ±åĲĮ":1739,"ä¸´":1740,"è¡£":1741,"Ġ2":1742,"å¯»æī¾":1743,"æİ¢ç´¢":1744,"åĴĸåķ¡":1745,"åĬ©äºİ":1746,"åĬłå¼º":1747,"ä¼¤":1748,"ä»¤":1749,"çļĦæĻ":1750,"è¡ĮåĬ¨":1751,"ä¸įè¦ģ":1752,"æŃ£ç¡®":1753,"åĳĺå·¥":1754,"é©¶":1755,"çĶµåŃĲ":1756,"å½ĵåľ°":1757,"åĪĽæĸ°":1758,"èĻ½":1759,"éĶĢåĶ®":1760,"éĢĲ":1761,"ç»ª":1762,"æŃ¥éª¤":1763,"ç«ŀ":1764,"åŁºäºİ":1765,"åħ¸":1766,"è¿Ļæĺ¯":1767,"åģĩ":1768,"ä¸¾":1769,"æ¤įçī©":1770,"çķĻ":1771,"åŁ¹":1772,"ç©¿":1773,"å¦ĤæŀľæĤ¨":1774,"æĸ°éĹ»":1775,"æľĢç»Ī":1776,"æľīåĬ©äºİ":1777,"éŃ":1778,"15":1779,"å©":1780,"ä½łåı¯ä»¥":1781,"åıĺå¾Ĺ":1782,"ä»Ĭå¤©":1783,"çļĦæĦı":1784,"åħ´è¶£":1785,"åº¦åĴĮ":1786,"è¶ĭ":1787,"ç²ī":1788,"éĩĩçĶ¨":1789,"åĳ¢":1790,"æħ¢":1791,"æ²Ļ":1792,"ä¸įèĥ½":1793,"èľ":1794,"æĶ¹åıĺ":1795,"åİŁåĽł":1796,"é¦Ĩ":1797,"æ¦Ĥ":1798,"èĻ½çĦ¶":1799,"ç½Ĺ":1800,"å¼Ģåıĳ":1801,"å½©":1802,"éĽ¨":1803,"æĬĢèĥ½":1804,"in":1805,"å¿«éĢŁ":1806,"é£Łåĵģ":1807,"12":1808,"äºĭä»¶":1809,"çŃĸçķ¥":1810,"è¿Ļç¯ĩæĸĩç«ł":1811,"æĿ¿":1812,"å°±æĺ¯":1813,"çļĦæ²":1814,"åħ³éĶ®è¯į":1815,"æ¯į":1816,"çļĦæī":1817,"ä¸°å¯Į":1818,"é¢ĳ":1819,"éĩĳèŀį":1820,"åİĭåĬĽ":1821,"æĬĢå·§":1822,"ä¸Ģä»½":1823,"éĢłæĪĲ":1824,"è¾ĳ":1825,"ä¸ĢæŃ¥":1826,"ç¿»":1827,"éĶĻè¯¯":1828,"ç¼ĵ":1829,"çļ®":1830,"çĩ":1831,"æľ¨":1832,"çļĦç¾":1833,"èģĮä¸ļ":1834,"âĢĿï¼Į":1835,"ç»ĥä¹ł":1836,"è¶ĭåĬ¿":1837,"åĳĬè¯ī":1838,"èĪŀ":1839,"æ¸Ĳ":1840,"å±Ģ":1841,"é¡»":1842,"éĻįä½İ":1843,"èĩªçĦ¶è¯Ńè¨Ģå¤ĦçĲĨ":1844,"åĪĨéĴŁ":1845,"ä¿ĥè¿Ľ":1846,"åĨľ":1847,"åľ°åĮº":1848,"é¼ĵ":1849,"æĢ§çļĦ":1850,"çī©è´¨":1851,"è¯ŃéŁ³":1852,"åģļåĩº":1853,"æ²³":1854,"åĮħåĲ«":1855,"åĲ¸å¼ķ":1856,"ĥåľ":1857,"åĨ°":1858,"åŀĥåľ":1859,"åŀĥåľ¾":1860,"çī¹çĤ¹":1861,"å¤ľ":1862,"æµª":1863,"çļĦæµ":1864,"èĦĳ":1865,"çļĦæĥħæĦŁ":1866,"åı¯æĮģç»Ń":1867,"æ¯ıä¸ªäºº":1868,"èĶ¬":1869,"æĶ¾æĿ¾":1870,"è¿ĺæĺ¯":1871,"äºĨä¸Ģä¸ª":1872,"çģµ":1873,"é©¾":1874,"èª":1875,"åº§":1876,"ä¸ĭéĿ¢":1877,"è¿ĺåı¯ä»¥":1878,"åıĤåĬł":1879,"ç§»":1880,"åı¶":1881,"ç»Ļå®ļ":1882,"å®ŀéĻħ":1883,"ç³ĸæŀľ":1884,"å®ĥçļĦ":1885,"è¯¦":1886,"åĮĸçļĦ":1887,"æ±½è½¦":1888,"éĿĴ":1889,"çľģ":1890,"åĬŀ":1891,"åįķè¯į":1892,"æľīåħ³":1893,"ï¼ļâĢľ":1894,"æ´²":1895,"ä»¥ç¡®ä¿Ŀ":1896,"ä¸Ģä½į":1897,"å¢ŀå¼º":1898,"ä»£è¡¨":1899,"å¨ģ":1900,"è¿Ļæ®µ":1901,"è¯¢":1902,"è¡Ģ":1903,"çºª":1904,"æĿ¯":1905,"æ°§":1906,"è¾ĵåħ¥":1907,"çļĦæŃ":1908,"åħĥç´ł":1909,"æĢ»ç»ĵ":1910,"ä»į":1911,"é¤Ĳåİħ":1912,"å°¼":1913,"è§ĤçĤ¹":1914,"å¯Ł":1915,"èģĶç³»":1916,"çļĦæĸĩç«ł":1917,"ç¥¨":1918,"å°Ĩä¼ļ":1919,"äººåĳĺ":1920,"æĥ¯":1921,"æ·±åº¦":1922,"æĭħ":1923,"èĶ¬èıľ":1924,"åĪĿ":1925,"é¢Ŀ":1926,"æĹ¶åĢĻ":1927,"è¯ĬæĸŃ":1928,"åı¥è¯Ŀ":1929,"çļĦä¿¡æģ¯":1930,"æĪĲåĳĺ":1931,"ä¼ĳ":1932,"äºĳ":1933,"ç»¼":1934,"åŁºæľ¬":1935,"åį°":1936,"æ°ĶåĢĻåıĺåĮĸ":1937,"èĪĴéĢĤ":1938,"åıĮ":1939,"ä¾Ŀ":1940,"å°Ħ":1941,"éĺ¿":1942,"åıĤä¸İ":1943,"å¿Ĺ":1944,"èĵĿ":1945,"ä½įç½®":1946,"åľºæĻ¯":1947,"æĺ¥":1948,"çĦ¶èĢĮ":1949,"æĺ¯ä»Ģä¹Ī":1950,"æĢİ":1951,"çļĦç¾İ":1952,"ä¸Ńå¿ĥ":1953,"å½ĵçĦ¶":1954,"ç»§":1955,"å¿ħé¡»":1956,"çļĦæ¸":1957,"åĵªäºĽ":1958,"ç¨³":1959,"åį«":1960,"é¸Ł":1961,"ç¬Ķ":1962,"çļĦæĹ¶éĹ´":1963,"è±Ĩ":1964,"å¦Ĥæŀľä½ł":1965,"æĳĦ":1966,"æĳĺè¦ģ":1967,"èĤ¡":1968,"æĶ¹åĸĦ":1969,"çľł":1970,"çł´":1971,"å³":1972,"åģı":1973,"ä¸įä¼ļ":1974,"æĤ£èĢħ":1975,"å¹³è¡¡":1976,"èĹ":1977,"æķ°åŃ¦":1978,"äº®":1979,"çĤ¼":1980,"200":1981,"åºĶå¯¹":1982,"æ¶ī":1983,"30":1984,"ç»ĻæĪĳ":1985,"è¿İ":1986,"éĥ½æľī":1987,"ä¹łæĥ¯":1988,"å¤ļç§į":1989,"éĢĤåºĶ":1990,"çļĦçĶŁæ´»":1991,"è¯¦ç»Ĩ":1992,"çŃīæĸ¹éĿ¢":1993,"ä½¿å¾Ĺ":1994,"æ°´æŀľ":1995,"å®¹æĺĵ":1996,"ç¡Ģ":1997,"æ¯ĶèµĽ":1998,"åŁºç¡Ģ":1999,"ç«ŀäºī":2000,"çļĦæķ°æį®":2001,"è·ĳ":2002,"ç¤¾äº¤åªĴä½ĵ":2003,"æ°´å¹³":2004,"æĺ¯æĮĩ":2005,"èī²çļĦ":2006,"åĨ·":2007,"ä½³":2008,"ä¸Ģæ¬¡":2009,"ä¸ĢçĽ´":2010,"æī¿":2011,"å¸¸è§ģ":2012,"ï¼īï¼Į":2013,"çļĦæĮ":2014,"å·¨":2015,"åħ¬åı¸çļĦ":2016,"ä¸īä¸ª":2017,"æľīè¶£":2018,"å½¢æĪĲ":2019,"AIæĬĢæľ¯":2020,"æ¯ıå¤©":2021,"æĪĳä¼ļ":2022,"åľ¨è¿Ļä¸ª":2023,"æķ´ä¸ª":2024,"ä»ĺ":2025,"éļĲç§ģ":2026,"å¤ļå°ĳ":2027,"æĪĲæľ¬":2028,"åħħæ»¡":2029,"åı¯ä»¥åľ¨":2030,"ç¤¼":2031,"æĦıè¯Ĩ":2032,"éļľ":2033,"ä¸ªæĢ§":2034,"çļĦä¸»è¦ģ":2035,"éĴĪ":2036,"å°ıçº¢":2037,"éĩİ":2038,"æİĮ":2039,"å®ļæľŁ":2040,"æĪĳæĥ³":2041,"èĻļ":2042,"æīĭæľº":2043,"éĢŁåº¦":2044,"åºķ":2045,"âĢĶ":2046,"æĲŃ":2047,"çĸ«":2048,"éĵģ":2049,"çļĦå·¥ä½ľ":2050,"çľ¼":2051,"é©¾é©¶":2052,"çĮ®":2053,"å®ĺ":2054,"èĩªçĶ±":2055,"æ´Ĺ":2056,"ä¸Ģå®ļ":2057,"çļĦç¤":2058,"çĭ¬çī¹":2059,"çĦ¦":2060,"çĹĩ":2061,"éĶ»":2062,"åı¯ä»¥è®©":2063,"å¹´è½»":2064,"è·Ł":2065,"å½¢å¼ı":2066,"éĢı":2067,"éĶ»çĤ¼":2068,"èĩªæĪĳ":2069,"èĳĹåĲį":2070,"èĢĮä¸Ķ":2071,"åįļ":2072,"çĿ¡":2073,"è¯¾":2074,"æ²ŁéĢļ":2075,"éĿł":2076,"æĿĳ":2077,"äº«åıĹ":2078,"âĢĿãĢĤ":2079,"è´ŁéĿ¢":2080,"æĦ¿":2081,"æĶ¹è¿Ľ":2082,"é¼ĵåĬ±":2083,"ç§ĺ":2084,"åĽ½å®¶":2085,"æĽ¾":2086,"å¤ļä¸ª":2087,"åĳ¼åĲ¸":2088,"çĽ®åīį":2089,"é¡¾":2090,"é¦Ī":2091,"éĵ¾":2092,"æĺ¯åľ¨":2093,"é¢Ĺ":2094,"æī§":2095,"çļĦçŁ":2096,"å°ļ":2097,"à¤":2098,"åıªæľī":2099,"åĲĮæĹ¶ä¹Ł":2100,"æ»¡è¶³":2101,"åİ¿":2102,"é¥°":2103,"è´£ä»»":2104,"çļĦæĦŁ":2105,"å²ģ":2106,"çľĭåĪ°":2107,"éĢĤå½ĵ":2108,"éĴ±":2109,"é¾Ļ":2110,"å¹¸":2111,"æĸ¹åĲĳ":2112,"ç»ĦæĪĲ":2113,"èĲ¥éĶĢ":2114,"åıĬæĹ¶":2115,"èĸ":2116,"çĨŁ":2117,"èĲ¥åħ»":2118,"ç¾İä¸½":2119,"Ġ\"":2120,"å®£":2121,"18":2122,"åıįé¦Ī":2123,"éĤ®":2124,"åĨ³å®ļ":2125,"éħ±":2126,"æľĿ":2127,"éĢģ":2128,"ä¼¦":2129,"èĩªåĬ¨åĮĸ":2130,"äºĭæĥħ":2131,"åħ°":2132,"èĮĥåĽ´":2133,"æ£ĢæŁ¥":2134,"æ®µèĲ½":2135,"çĸĳ":2136,"é¢ĺçĽ®":2137,"åħ¶æ¬¡":2138,"çļĦçł":2139,"è¿ĻéĩĮ":2140,"æĺİç¡®":2141,"æı¡":2142,"æĽ´å¥½çļĦ":2143,"çĽĸ":2144,"Ġåľ¨":2145,"èĮ¶":2146,"çļĦæĥħåĨµ":2147,"çĽĲ":2148,"æĮīçħ§":2149,"å¡ĳ":2150,"çĻ¾":2151,"åį±":2152,"çº³":2153,"æĢĿèĢĥ":2154,"ä¸ºæĤ¨":2155,"è®¨è®º":2156,"å°Ĩåħ¶":2157,"ç»§ç»Ń":2158,"çļĦå»ºè®®":2159,"æ·»":2160,"ç»ıåİĨ":2161,"çļĦæ°´":2162,"å¥ĸ":2163,"æ´ŀ":2164,"çī¹åĪ«":2165,"åĪĨäº«":2166,"åĵĪ":2167,"å®ĩ":2168,"èĥľ":2169,"æĵį":2170,"æıĲåĩº":2171,"æ±Ł":2172,"å¯»æ±Ĥ":2173,"é«ĺæķĪ":2174,"åķĨåĵģ":2175,"ä½Ļ":2176,"è¡¨æĺİ":2177,"åĤ¨":2178,"æ³ķå¾ĭ":2179,"æĸĩåŃ¦":2180,"ä½ľèĢħ":2181,"ä¸ŃæıĲåıĸ":2182,"è¶³å¤Ł":2183,"ç¹":2184,"åĨ²":2185,"ä¸ĢåĲį":2186,"çļĦæ¯":2187,"èĥĮæĻ¯":2188,"è¾Ĩ":2189,"åĲĪéĢĤ":2190,"Ġ3":2191,"æĿ¡ä»¶":2192,"åģľ":2193,"è·Ŀ":2194,"åĽ¾åĥı":2195,"è¿Ľä¸ĢæŃ¥":2196,"éĢĤéĩı":2197,"ä½įäºİ":2198,"è§£åĨ³æĸ¹æ¡Ī":2199,"ç¬¬äºĮ":2200,"åıįåºĶ":2201,"å°Ĭéĩį":2202,"æ··":2203,"æĩ":2204,"åį´":2205,"æķĳ":2206,"çļĦæĬĢæľ¯":2207,"åĿı":2208,"æ¯Ĵ":2209,"ä¸ºä»Ģä¹Ī":2210,"ç©ºæ°Ķ":2211,"è¯Ħè®º":2212,"åĲĪçĲĨ":2213,"å²Ľ":2214,"åĬĽéĩı":2215,"ç«¯":2216,"åįĬ":2217,"ä¸įåı¯":2218,"æľīäºĽ":2219,"éĵ¶":2220,"åı£æĦŁ":2221,"æ¶īåıĬ":2222,"è´§":2223,"èģļ":2224,"è¸":2225,"è¿Ļä¸ªéĹ®é¢ĺ":2226,"åŃ¦ä¹łåĴĮ":2227,"é¡º":2228,"åĽ°éļ¾":2229,"æ½ľ":2230,"çģ¾":2231,"å¿ħè¦ģ":2232,"æĴŃ":2233,"100":2234,"çłģ":2235,"çħ®":2236,"å®Ī":2237,"åı¯ä»¥ä½¿çĶ¨":2238,"èĨ":2239,"æ¼«":2240,"æĥħç»ª":2241,"ç¥ŀç»ı":2242,"ä¸¥éĩį":2243,"æ¶Īè´¹":2244,"é«ĺçļĦ":2245,"è¯ĳ":2246,"åķĨä¸ļ":2247,"__":2248,"éĿ¢ä¸´":2249,"èģĶç½ĳ":2250,"èĪª":2251,"å¹³åı°":2252,"æĶ¿çŃĸ":2253,"å¯¹è¯ĿåĨħå®¹":2254,"åįĥ":2255,"ç¾İé£Ł":2256,"éħ¸":2257,"ç¢³":2258,"çĤĴ":2259,"æĢ¥":2260,"è®°å½ķ":2261,"æĹ¥å¸¸":2262,"æ¢¦":2263,"å·¦":2264,"çļĦçľ":2265,"åŃ¦æł¡":2266,"èģĬ":2267,"æ¯Ľ":2268,"å¼ºè°ĥ":2269,"åı³":2270,"å¤ļæł·":2271,"åħ¬åĽŃ":2272,"å®ĥä»¬çļĦ":2273,"åı¦å¤ĸ":2274,"èĪ¬":2275,"æ¤Ĵ":2276,"åĮ»åŃ¦":2277,"åįĪ":2278,"æıĲä¾ĽäºĨ":2279,"50":2280,"æľºæŀĦ":2281,"è¯´æĺİ":2282,"å®ł":2283,"æĽ¿":2284,"æŁĲäºĽ":2285,"éĢĲæ¸Ĳ":2286,"è¿ĽæŃ¥":2287,"ä¹ĭåīį":2288,"å¤«":2289,"à¸":2290,"è½¯ä»¶":2291,"åĲįç§°":2292,"å®¶å±ħ":2293,"ä¹ħ":2294,"çļĦç¤¾":2295,"è§īå¾Ĺ":2296,"åĭĩ":2297,"éĩįæĸ°":2298,"æĺ¯çļĦ":2299,"ç§ĭ":2300,"éĤ®ä»¶":2301,"çī©åĵģ":2302,"æĮ¥":2303,"ãĢĤ\\":2304,"åĪĽä½ľ":2305,"åĲ§":2306,"æłĩé¢ĺ":2307,"æĢİä¹Ī":2308,"Ġ+":2309,"ä¼´":2310,"åĪ¤æĸŃ":2311,"æµĭè¯ķ":2312,"ç©ºéĹ´":2313,"æĶ¶éĽĨ":2314,"éĢĶ":2315,"çģ¯":2316,"æľīçĿĢ":2317,"çĬ¶æĢģ":2318,"å¤§åĪ©":2319,"é¥Ń":2320,"æ±¤":2321,"æįŁ":2322,"çļĦæĸ¹å¼ı":2323,"ä¼½":2324,"æĥ³è¦ģ":2325,"æŃ§":2326,"åĪĨéħį":2327,"æĹ¥æľ¬":2328,"çĥĪ":2329,"çıŃ":2330,"æ±ĩ":2331,"éģĹ":2332,"çº¸":2333,"æ¨¡å¼ı":2334,"éĿ©":2335,"è¡ĮæĺŁ":2336,"åĿĲ":2337,"ç¹ģ":2338,"å¤§åŃ¦":2339,"èĢģå¸Ī":2340,"èĦĤ":2341,"çİ°å®ŀ":2342,"åĢĴ":2343,"æĦıä¹ī":2344,"åĢĭ":2345,"å±ŀäºİ":2346,"é¹":2347,"éģĵå¾·":2348,"åı¯ä»¥å¸®åĬ©æĤ¨":2349,"å¥¥":2350,"ç¬¦åĲĪ":2351,"æ·±åħ¥":2352,"éľĢè¦ģæ³¨æĦı":2353,"å¼ķèµ·":2354,"åī©":2355,"çĬ¯":2356,"å®ŀéªĮ":2357,"å®łçī©":2358,"æľªæĿ¥çļĦ":2359,"çĦ¦èĻĳ":2360,"èį¯çī©":2361,"æ·±åº¦åŃ¦ä¹ł":2362,"å°ıæĹ¶":2363,"æ¬¢è¿İ":2364,"ç»Ŀ":2365,"ä½¿åħ¶":2366,"éĶħ":2367,"å¹³åĿĩ":2368,"an":2369,"è§ĦåĪĴ":2370,"éĻĲåĪ¶":2371,"åĴĮåħ¶ä»ĸ":2372,"çļĦæ³":2373,"è¿Ļä¸Ģ":2374,"æ³¨éĩį":2375,"ä¸ĭæĿ¥":2376,"ing":2377,"è´¡":2378,"æ£®":2379,"åĺ":2380,"éķĩ":2381,"è´µ":2382,"è´Ńçī©":2383,"æķĪçİĩåĴĮ":2384,"åĮĹäº¬":2385,"åı«":2386,"ľä¼½":2387,"æł¸":2388,"æ¥¼":2389,"åĪ¶éĢł":2390,"æĪĳä»¬åºĶè¯¥":2391,"æĹ¥æľŁ":2392,"ç®±":2393,"çļĦçĥ":2394,"çĬ¶åĨµ":2395,"æĶ»":2396,"ç£":2397,"æľīå¾Īå¤ļ":2398,"èĹı":2399,"æŃ»":2400,"å©ļ":2401,"åģ¥èº«":2402,"èĲ¨":2403,"11":2404,"åľ¨åĮ»çĸĹ":2405,"çĶµè§Ĩ":2406,"å®Ļ":2407,"çīĪ":2408,"æĵįä½ľ":2409,"æĦŁè§ī":2410,"ç³»åĪĹ":2411,"ä¹Łä¼ļ":2412,"æİĮæı¡":2413,"æ¸ħæĻ":2414,"ç½ª":2415,"çĶŁæĪĲä¸Ģä¸ª":2416,"åķĬ":2417,"å¹¶åľ¨":2418,"çļĦçłĶ":2419,"èī¯å¥½çļĦ":2420,"ä¿Ŀè¯ģ":2421,"èµı":2422,"æ»©":2423,"æİ¨åĬ¨":2424,"æĲľ":2425,"è¯Ħä»·":2426,"æĬĺ":2427,"ç¨³å®ļ":2428,"éĻĪ":2429,"åĮĸåŃ¦":2430,"çĽ¸äºĴ":2431,"çļĦéľĢæ±Ĥ":2432,"æĲŃéħį":2433,"æ±ī":2434,"åħ¬åħ±":2435,"ä»įçĦ¶":2436,"å®ĩå®Ļ":2437,"æİĴæĶ¾":2438,"è·³":2439,"å³°":2440,"åıĸå¾Ĺ":2441,"ç¿»è¯ĳ":2442,"éĴĪå¯¹":2443,"éĢĻ":2444,"çļĦçĪ":2445,"èĢĲ":2446,"è´¡çĮ®":2447,"æµģç¨ĭ":2448,"å±ķç¤º":2449,"XX":2450,"ç»ıå¸¸":2451,"åı¯ä»¥å¸®åĬ©ä½ł":2452,"ä¹ĺ":2453,"åĽº":2454,"éľ²":2455,"çĶľ":2456,"è°ĥæŁ¥":2457,"ä¼ļè®®":2458,"äººçī©":2459,"èĤĮ":2460,"æĹłè®º":2461,"æİĴåºı":2462,"çİĽ":2463,"éŀ":2464,"æ·»åĬł":2465,"çĽ¸ä¿¡":2466,"çĽĺ":2467,"æĪĳåı¯ä»¥":2468,"éĺ³åħī":2469,"çļĦæĬķ":2470,"æĥĬ":2471,"éģµ":2472,"å®¡":2473,"å¦Ĥä¸ĭ":2474,"æ¸©åº¦":2475,"16":2476,"çļĦå¤§":2477,"å¿Ĩ":2478,"è¯Ńæ³ķ":2479,"æľ«":2480,"åĬ³":2481,"æľĢä½³":2482,"æĬ¥éģĵ":2483,"åĳĬè¯īæĪĳ":2484,"å°½ç®¡":2485,"åĩıè½»":2486,"è·Ŀç¦»":2487,"å¹¿åĳĬ":2488,"è¡¨éĿ¢":2489,"çī©çĲĨ":2490,"æĹ¶éĹ´åĴĮ":2491,"æłĩåĩĨ":2492,"è®©æĪĳ":2493,"åĴĮæĸĩåĮĸ":2494,"è°¢è°¢":2495,"èķ":2496,"æĢ»çļĦ":2497,"èĥ¡":2498,"è®¿":2499,"è¾¾åĪ°":2500,"åĽ½éĻħ":2501,"æľĢå¤§":2502,"çļĦæı":2503,"è¡Ĺ":2504,"åºĵ":2505,"çļĦåľ°æĸ¹":2506,"æĬ½":2507,"è®©æĪĳä»¬":2508,"çĹĽ":2509,"å¥³æĢ§":2510,"èĽĭçĻ½":2511,"æİ¥åıĹ":2512,"å¥ı":2513,"æĢ»çļĦæĿ¥è¯´":2514,"æľīæīĢ":2515,"æĪĲéķ¿":2516,"è§Ĩè§ī":2517,"æľīä¸Ģ":2518,"æŁĶ":2519,"æľīä»Ģä¹Ī":2520,"çĳľä¼½":2521,"æ¹ĸ":2522,"è¯ļ":2523,"æĦŁåıĹ":2524,"è¯»èĢħ":2525,"åºĶçĶ¨ç¨ĭåºı":2526,"æŃ§è§Ĩ":2527,"ä¾ĭåŃĲ":2528,"ç½ĳç«Ļ":2529,"å«":2530,"åĪļ":2531,"æµ·æ´ĭ":2532,"å®Įåħ¨":2533,"è¿½æ±Ĥ":2534,"å®Ĺ":2535,"æī©":2536,"ç»ĨèĬĤ":2537,"çļĦæĢĿ":2538,"å¾ª":2539,"çĶŁæ´»ä¸Ń":2540,"å·¥ç¨ĭ":2541,"èĥ½éĩı":2542,"ç»¿èī²":2543,"ç§Ģ":2544,"æ±ģ":2545,"æ´¾":2546,"éĨĴ":2547,"æĹ¶å°ļ":2548,"è¿·":2549,"çī©ä½ĵ":2550,"å¡Ķ":2551,"éĥ¨çĶµå½±":2552,"ä¸ļåĬ¡":2553,"æ¸ħæĻ°":2554,"çļĦç¬":2555,"å®īæİĴ":2556,"ä¿Ŀåģ¥":2557,"å§Ĩ":2558,"æĦŁè°¢":2559,"çİ°è±¡":2560,"çļĦå®īåħ¨":2561,"æĸĩæľ¬ä¸Ń":2562,"åŁ¹è®Ń":2563,"ç¾İåĳ³":2564,"æĭ¿":2565,"è´¢åĬ¡":2566,"æıĲåįĩ":2567,"å¢ŀéķ¿":2568,"è§£åĨ³éĹ®é¢ĺ":2569,"è®²è¿°":2570,"çĽ¸å¯¹":2571,"è®©äºº":2572,"çļĦå°ı":2573,"æ±ł":2574,"éĿ¢å¯¹":2575,"ï¼ģ<|":2576,"çļĦçłĶç©¶":2577,"è°Ī":2578,"æĽ´å¥½åľ°çĲĨè§£":2579,"è·µ":2580,"ä»¤äºº":2581,"Ġå°Ĩ":2582,"æ¬§":2583,"èĤ¥":2584,"æİ¨å¹¿":2585,"ç¼ĸè¾ĳ":2586,"äºĴåĬ¨":2587,"çļĦæ´":2588,"ç±»åĪ«":2589,"çĥ§":2590,"ç¼ĸåĨĻ":2591,"çĩĥ":2592,"å¹¸ç¦ı":2593,"åĳĪ":2594,"å¸ģ":2595,"æĬ¥åĳĬ":2596,"äººç±»çļĦ":2597,"æ°¸":2598,"åĮĢ":2599,"äººæ°ĳ":2600,"çĶŁæĢģç³»ç»Ł":2601,"æĬĢæľ¯çļĦ":2602,"ç»´æĬ¤":2603,"æĺ¯çĶ±":2604,"å¸¦æĿ¥äºĨ":2605,"å¾Ħ":2606,"ç¼ĵè§£":2607,"Ġ5":2608,"åľĨ":2609,"Ġ(":2610,"ç»©":2611,"è¿ĩåİ»":2612,"æĿŁ":2613,"è¯·éĹ®":2614,"ç¤¾åĮº":2615,"æ²ī":2616,"åĲ¯":2617,"ç¨ĭåº¦":2618,"åŃ¸":2619,"ä¸ĸçºª":2620,"ĠĠĠĠ":2621,"éĻ¤äºĨ":2622,"on":2623,"æī§è¡Į":2624,"æĬĹ":2625,"çļĦåħ³éĶ®":2626,"±ä¹Ĳ":2627,"æĦıåĳ³":2628,"å®ŀè·µ":2629,"éŀĭ":2630,"åıĳæĮ¥":2631,"çĻ»":2632,"èĭı":2633,"åĨĻä½ľ":2634,"è¿Ļæĺ¯ä¸Ģä¸ª":2635,"è¢ĭ":2636,"æ¶²":2637,"ä¹³":2638,"åĴ¨":2639,"åĸĿ":2640,"ç³ķ":2641,"ç¬ĳ":2642,"ä¸ĬæľĢ":2643,"åĩĢ":2644,"æļ´":2645,"åį³åı¯":2646,"å¡ĳæĸĻ":2647,"è§ĦåĪĻ":2648,"èĳ±":2649,"çĽ´æİ¥":2650,"åĪĽå»º":2651,"çļĦä¸Ģä¸ª":2652,"éķ¿æľŁ":2653,"éĸ":2654,"ä¸Ŀ":2655,"å§Ķ":2656,"åĩºæĿ¥":2657,"æ··åĲĪ":2658,"åĨĴ":2659,"ä»¥ä¸ĭæĺ¯ä¸Ģ":2660,"æĶ¾åľ¨":2661,"æĦī":2662,"æ©Ļ":2663,"åĴ¨è¯¢":2664,"çļĦæķħäºĭ":2665,"æĹ¶æľŁ":2666,"å°ģ":2667,"è¾£":2668,"äºĴèģĶç½ĳ":2669,"æµĵ":2670,"æĸĩåĮĸåĴĮ":2671,"è¹":2672,"æ³³":2673,"ä¼ĺåĬ¿":2674,"æĦıåĳ³çĿĢ":2675,"çŃīé¢ĨåŁŁ":2676,"éĽª":2677,"çļĦæĳ":2678,"åħŃ":2679,"çĽ¸åºĶ":2680,"çļĦé£İéĻ©":2681,"ä¼ĳæģ¯":2682,"éŃĶ":2683,"å¿ĺ":2684,"ç»ıåħ¸":2685,"ä¸įéĶĻ":2686,"è¿Ľåħ¥":2687,"åºĶçĶ¨äºİ":2688,"åľ¨çº¿":2689,"èĤ¤":2690,"åŃ¤":2691,"çĶ¨æĿ¥":2692,"çĽ¸åĲĮ":2693,"åĢĳ":2694,"åĢ¼å¾Ĺ":2695,"èĭ±è¯Ń":2696,"æİ¢è®¨":2697,"åŃ¦ä¼ļ":2698,"ç§°ä¸º":2699,"åºŁ":2700,"èĦļ":2701,"ä¸ĢèĪ¬":2702,"æľīä¸Ģä¸ª":2703,"æļĹ":2704,"ç±į":2705,"åĿļæĮģ":2706,"çĽĳæµĭ":2707,"å®«":2708,"çİ¯å¢ĥä¿ĿæĬ¤":2709,"çľŁæŃ£":2710,"æŃ£ç¡®çļĦ":2711,"ï¼Ł<|":2712,"åºĬ":2713,"Jo":2714,"å»¶":2715,"æ¸ħæ´ģ":2716,"å¯¹æĸ¹":2717,"çŃ¾":2718,"åĬ¨ä½ľ":2719,"å¹»":2720,"Ba":2721,"æ°Ķä½ĵ":2722,"æĲľç´¢":2723,"è²":2724,"åĢ¾":2725,"åĹ":2726,"å¾Īå¥½":2727,"ç¬¬ä¸Ģ":2728,"ç»ĵåĲĪ":2729,"è½®":2730,"çļĦåİĨåı²":2731,"æĪĳè®¤ä¸º":2732,"000":2733,"çīĻ":2734,"ç§ĳåŃ¦å®¶":2735,"æĥħåĨµä¸ĭ":2736,"çĪ¶":2737,"åĩºäºĨ":2738,"çĨĬ":2739,"çļĦæĸĩæľ¬":2740,"ç«¥":2741,"åĳ³éģĵ":2742,"çļĦæĬķèµĦ":2743,"ï¼īãĢĤ":2744,"æ³¡":2745,"ç¥Ŀ":2746,"é¾Ħ":2747,"åıĺæļĸ":2748,"åı£åĳ³":2749,"ä½Ľ":2750,"å®½":2751,"çĿ£":2752,"äº¤æĺĵ":2753,"çĭ¬çī¹çļĦ":2754,"æķı":2755,"é¢Ĩå¯¼":2756,"çļĦæĢ§":2757,"å¹¶ä¸į":2758,"çļĦæ°Ķ":2759,"è¯¾ç¨ĭ":2760,"ä¸Ģæł·":2761,"ä»ĸäºº":2762,"åģ¥åº·çļĦ":2763,"ç»ıè¿ĩ":2764,"çİī":2765,"åħħåĪĨ":2766,"è°ģ":2767,"éĻĦ":2768,"åı¯æĮģç»Ńåıĳå±ķ":2769,"æĿ¥èĩª":2770,"ĠÃ":2771,"åĪĨä¸º":2772,"å¦Ī":2773,"æĹ¨":2774,"æľĹ":2775,"ä¸»ä¹ī":2776,"æĭĮ":2777,"æĤ¨éľĢè¦ģ":2778,"è§Ĥä¼Ĺ":2779,"ä¹¡":2780,"è¿Ļæĺ¯ä¸Ģ":2781,"åľ°æĸ¹":2782,"ç¼©":2783,"äºĭå®ŀ":2784,"hn":2785,"Ġ4":2786,"çļĦæĥ³":2787,"å¿«ä¹Ĳ":2788,"æŀ¶":2789,"å®¶äºº":2790,"åı¯éĿł":2791,"æĪĲä¸ºäºĨ":2792,"éĿŀå¸¸éĩįè¦ģçļĦ":2793,"æł¹æį®ç»Ļå®ļçļĦ":2794,"è¿ĩåº¦":2795,"èĢĹ":2796,"æĸ¹ä¾¿":2797,"John":2798,"å¥Ĺ":2799,"é¢Ħç®Ĺ":2800,"èĻļæĭŁ":2801,"åĽłä¸ºå®ĥ":2802,"è³":2803,"æ¹¿":2804,"ç»ĺ":2805,"ä½łéľĢè¦ģ":2806,"å·Ŀ":2807,"çĶŁéķ¿":2808,"èĮĦ":2809,"åĸľæ¬¢çļĦ":2810,"ä½łå¥½":2811,"çĽ¸åħ³çļĦ":2812,"ï¼ĮâĢľ":2813,"åı¯èĥ½æĺ¯":2814,"er":2815,"éĽĨä¸Ń":2816,"åı¤ä»£":2817,"æĸĩåŃĹ":2818,"èĤ¡ç¥¨":2819,"è©":2820,"æĺł":2821,"æ¶¦":2822,"ä¸Ģåıª":2823,"è°·":2824,"æ¶Īè´¹èĢħ":2825,"å£°éŁ³":2826,"14":2827,"zing":2828,"çļĦéĩįè¦ģæĢ§":2829,"ç¥ŀç§ĺ":2830,"è¾ĵåĩº":2831,"å¤§å®¶":2832,"æ»¡æĦı":2833,"è¡¥":2834,"å¼ĥ":2835,"Bazing":2836,"Bazinga":2837,"åĳ¨åĽ´":2838,"é¡¿":2839,"è¿Ļåı¥è¯Ŀ":2840,"é«ĺåº¦":2841,"åīĤ":2842,"è®¾ç½®":2843,"æĹĭ":2844,"æ·±åĪ»":2845,"å®£ä¼ł":2846,"çļĦä¸»é¢ĺ":2847,"çĶŁåŃĺ":2848,"ä¹İ":2849,"åı¯ä»¥æł¹æį®":2850,"è¿ŀæİ¥":2851,"æĶ¾åħ¥":2852,"ç²¾ç¥ŀ":2853,"17":2854,"éº¦":2855,"åī¯":2856,"èµŀ":2857,"è®¤è¯Ĩ":2858,"çļĦæĻº":2859,"æĸĹ":2860,"åĽ¢éĺŁæĪĲåĳĺ":2861,"éģį":2862,"éĤ£äºĽ":2863,"çĽ¸ä¼¼":2864,"25":2865,"éĢĴ":2866,"æķ°æį®åĪĨæŀĲ":2867,"åħ«":2868,"ä¸ªæĢ§åĮĸ":2869,"çĪ±æĥħ":2870,"å°¾":2871,"ä¿¡ä»»":2872,"çº¢èī²":2873,"æ»ĳ":2874,"çļĦæĹ¶åĢĻ":2875,"è½¦è¾Ĩ":2876,"æ¬£":2877,"å¹¶æıĲä¾Ľ":2878,"æīĢè¿°":2879,"å¹³çŃī":2880,"èĤª":2881,"å·¥ä¸ļ":2882,"èĦĤèĤª":2883,"åį·":2884,"åĪº":2885,"åĨ¬":2886,"éĩįå¤į":2887,"èİ·åıĸ":2888,"çĽ´åĪ°":2889,"åĪĨåĪ«":2890,"æľĢéĩįè¦ģçļĦ":2891,"æŃ¦":2892,"çĿ¡çľł":2893,"è¶ħè¿ĩ":2894,"åĴĮç¤¾ä¼ļ":2895,"çļĦæµ·":2896,"åŃ£èĬĤ":2897,"è§Ĥå¯Ł":2898,"çĲĨè®º":2899,"æķ¬":2900,"è¸ª":2901,"å¨±ä¹Ĳ":2902,"éľĩ":2903,"ä»¥ä¸ĭåı¥åŃĲ":2904,"èĽĭçĻ½è´¨":2905,"çĶļ":2906,"ç»¼ä¸Ĭ":2907,"åłĤ":2908,"å°¤":2909,"åįł":2910,"æĦıå¤§åĪ©":2911,"èĢĮä¸įæĺ¯":2912,"æ¨¡æĭŁ":2913,"åĲĪéĢĤçļĦ":2914,"å·®å¼Ĥ":2915,"é£ŁæĿĲ":2916,"é¥¼":2917,"éĽ¶":2918,"å®ŀä½ĵ":2919,"æĿ¥æºĲ":2920,"æ¸¸æ³³":2921,"æ£®æŀĹ":2922,"åĬĽçļĦ":2923,"æĢĿæĥ³":2924,"21":2925,"è¿Ļéĥ¨çĶµå½±":2926,"çķħ":2927,"om":2928,"éĢĢ":2929,"åĲĦä¸ª":2930,"å°½åı¯èĥ½":2931,"èĥģ":2932,"è¯ŃéŁ³è¯ĨåĪ«":2933,"åĮºåŁŁ":2934,"è´¥":2935,"ä¾Ĩ":2936,"è¯įæ±ĩ":2937,"è§Ĩé¢ĳ":2938,"è®¢":2939,"è§¦":2940,"é¸¡èĽĭ":2941,"å¤ªç©º":2942,"çĤº":2943,"å®ŀæĸ½":2944,"çĶ¨çļĦ":2945,"èĩªè¡Į":2946,"ç¨İ":2947,"æĺ¯ä¸ŃåĽ½":2948,"æīĢéľĢ":2949,"åĨ¥":2950,"æľŁéĹ´":2951,"äºĨä¸ĢäºĽ":2952,"..":2953,"çī¹å®ļ":2954,"ç®Ģæ´ģ":2955,"çļĦæĶ¯":2956,"ä¹ı":2957,"é¢Ħéĺ²":2958,"è¿Ļæ®µæĸĩæľ¬":2959,"ä»¥ä¸ĭåĩłä¸ª":2960,"çīĽå¥¶":2961,"å¨ģèĥģ":2962,"èī¯å¥½":2963,"åı¯ä»¥æıĲé«ĺ":2964,"èªī":2965,"çķª":2966,"çļĦåı¥åŃĲ":2967,"åĪĽæĦı":2968,"åıªæĺ¯":2969,"å½ĵåīį":2970,"ç¥ŀç»ıç½ĳç»ľ":2971,"ä¸Ĭåįĩ":2972,"æĹ¶ä»£":2973,"èĩ³å°ĳ":2974,"å·§åħĭ":2975,"åľ¨ä¸Ģèµ·":2976,"æĥħèĬĤ":2977,"åĪĹè¡¨":2978,"ä¸ĵæ³¨":2979,"ç»ĦåĲĪ":2980,"çıį":2981,"ä¹ĭåĲİ":2982,"è¾ħ":2983,"åĲįåŃĹ":2984,"ä¸įè¿ĩ":2985,"çĶ³":2986,"èĿ":2987,"çĶ²":2988,"å´":2989,"ĠÐ":2990,"æĻºèĥ½å®¶å±ħ":2991,"åıĹæ¬¢è¿İ":2992,"éª¨":2993,"åºĨ":2994,"è°±":2995,"ä¼ĺåħĪ":2996,"è¯ĹæŃĮ":2997,"åĿĩåĮĢ":2998,"å°į":2999,"éĺ¶":3000,"æĿ°":3001,"åĨħéĥ¨":3002,"ä½łä»¬":3003,"æĸ°é²ľ":3004,"çļĦçģ":3005,"èĭ¦":3006,"è¿Ļå°Ĩ":3007,"åĽŀçŃĶéĹ®é¢ĺ":3008,"éªĳ":3009,"å¸Ŀ":3010,"è½½":3011,"æģ¶":3012,"åľ¨æľªæĿ¥":3013,"å¸¸è§ģçļĦ":3014,"æŃ£éĿ¢":3015,"çļĦæłĩ":3016,"ç»¼ä¸ĬæīĢè¿°":3017,"åľ¨å®¶":3018,"çµ":3019,"éģĩåĪ°":3020,"ä¹Łæľī":3021,"çļĦçİ¯å¢ĥ":3022,"ãĢį":3023,"ãĢĮ":3024,"æĺ¨":3025,"å½¢è±¡":3026,"é¡¶":3027,"åĬ©æīĭ":3028,"åĶ±":3029,"åħ¨çĲĥåıĺæļĸ":3030,"æĢ»æĺ¯":3031,"åľ£":3032,"å¹´é¾Ħ":3033,"æī¹":3034,"åıĳå¸ĥ":3035,"çļĦæİ¨":3036,"å¥¹çļĦ":3037,"æĽ´å¥½åľ°äºĨè§£":3038,"åĵģè´¨":3039,"äºĪ":3040,"æİĪ":3041,"åĲįè¯į":3042,"å½¼":3043,"èĪ¹":3044,"ç»¼åĲĪ":3045,"è§Ħå®ļ":3046,"èĩªä¿¡":3047,"èĥ½åĴĮ":3048,"æħ§":3049,"å»ºè®¾":3050,"è½»æĿ¾":3051,"åĪĨåŃĲ":3052,"éĥ½ä¼ļ":3053,"çļĦé£Łçī©":3054,"æĻĤ":3055,"æĥł":3056,"çļĦåŃ¦ä¹ł":3057,"è¯Ŀé¢ĺ":3058,"ç±»ä¼¼":3059,"é»ĳæ´ŀ":3060,"å®ľ":3061,"æĮĩå¯¼":3062,"æ®Ĭ":3063,"åľ°çĤ¹":3064,"éĻĨ":3065,"æĢĿç»´":3066,"13":3067,"ä¸ªèĭ¹æŀľ":3068,"æİī":3069,"åĴĮæĶ¯æĮģ":3070,"å°±ä¸ļ":3071,"çĶļèĩ³":3072,"è¿ĺéľĢè¦ģ":3073,"åĨ¥æĥ³":3074,"ç§»åĬ¨":3075,"ä¸Ģä¸ªäºº":3076,"æĦŁåıĹåĪ°":3077,"åİļ":3078,"éĹŃ":3079,"å¤§éĩıçļĦ":3080,"çŁŃè¯Ń":3081,"èļ":3082,"èĦ±":3083,"çļĦæ´»":3084,"æł¹æį®ä»¥ä¸ĭ":3085,"å®ļä¹ī":3086,"éĽħ":3087,"æ¸¯":3088,"ãĢĤ\"":3089,"å¯¹çİ¯å¢ĥ":3090,"å¹ħ":3091,"åī©ä¸ĭ":3092,"æķ°æį®çļĦ":3093,"æµģè¡Į":3094,"æĭį":3095,"åĨįçĶŁ":3096,"æľ¬ä¹¦":3097,"èī¾":3098,"ä¼ĺç§Ģ":3099,"æĶ¯ä»ĺ":3100,"å®ģ":3101,"æ°§åĮĸ":3102,"çļĦæ¦":3103,"å¼ĢæĶ¾":3104,"çļĦç³":3105,"èĴľ":3106,"çİ©å®¶":3107,"äººçĶŁ":3108,"éĩıåŃĲ":3109,"çļĦçĽ®æłĩ":3110,"åĴĮåıĳå±ķ":3111,"æ£Ĵ":3112,"å±ĭ":3113,"æľīæķĪåľ°":3114,"ĠæĪĳ":3115,"èĳĹåĲįçļĦ":3116,"çĽ®çļĦ":3117,"çŃīæĸ¹å¼ı":3118,"æ¡¥":3119,"é£ŀè¡Į":3120,"å¹´çļĦ":3121,"çļĦç©":3122,"è£ħé¥°":3123,"èĤĮèĤī":3124,"éĵ¶è¡Į":3125,"å°º":3126,"éĿ¢ç§¯":3127,"è´Ŀ":3128,"é½":3129,"å·§åħĭåĬĽ":3130,"çļĦæĥ³æ³ķ":3131,"èĽĭç³ķ":3132,"åıĺå¾ĹæĽ´åĬł":3133,"ä»·åĢ¼è§Ĥ":3134,"çļĦæīĭ":3135,"èģĬå¤©":3136,"èĩªåĬ¨é©¾é©¶":3137,"èº«ä½ĵåģ¥åº·":3138,"çĶµèĦĳ":3139,"éĿŀå¸¸éĩįè¦ģ":3140,"éĥģ":3141,"å¤ıåŃ£":3142,"çļĦä½¿çĶ¨":3143,"æ³°":3144,"å¢Ļ":3145,"çļĦçĪ±":3146,"å¿Ļ":3147,"é¥®æĸĻ":3148,"èľľ":3149,"å¥ĭ":3150,"åŁ¹åħ»":3151,"æ¾":3152,"çļĦæ±":3153,"æĬ±":3154,"çļĦçĭ":3155,"çĶ°":3156,"çī¹æ®Ĭ":3157,"è½¬æį¢":3158,"éļıæĹ¶":3159,"å¤ıå¤©":3160,"ç®ĢåįķçļĦ":3161,"äº¡":3162,"åı¯ä»¥è¢«":3163,"åĵ¥":3164,"çļĦå¥½":3165,"èį£":3166,"å·¦åı³":3167,"åĨľä¸ļ":3168,"é»İ":3169,"ä¸ĥ":3170,"ä¸ľè¥¿":3171,"æģĲ":3172,"æį·":3173,"çļĦæĮĳæĪĺ":3174,"åħ¬éĩĮ":3175,"è®¾æĸ½":3176,"å¯¿":3177,"ç¡¬":3178,"æķ°æį®éĽĨ":3179,"çļĦè¡Įä¸º":3180,"å½¢çĬ¶":3181,"æķĻåŃ¦":3182,"çļĦç²":3183,"æĻ¯çĤ¹":3184,"ä¼ĺçĤ¹":3185,"ä¿Ŀéļľ":3186,"éĥ¨éĹ¨":3187,"æī°":3188,"éĢ»":3189,"éĢĤå½ĵçļĦ":3190,"ä»¿":3191,"å¼¹":3192,"le":3193,"æ£Ģæµĭ":3194,"æ¯ıä¸ªäººéĥ½":3195,"22":3196,"çļĦèĥ½åĬĽ":3197,"çĥŁ":3198,"çĶŁæ´»æĸ¹å¼ı":3199,"çļĦçŁ¥":3200,"çļĦæ¦Ĥ":3201,"æıĲåĪ°":3202,"å¤ļçļĦ":3203,"çĭ¬ç«ĭ":3204,"è¿Ľè¡ĮåĪĨç±»":3205,"ç¬¬ä¸ī":3206,"ä»ĸä»¬çļĦå¯¹è¯ĿåĨħå®¹":3207,"åĳĪçİ°":3208,"åĪĹåĩº":3209,"è¿¹":3210,"éº»":3211,"çºł":3212,"âĢĶâĢĶ":3213,"æĳĦåħ¥":3214,"æĢĢ":3215,"å¾ĹåĪ°äºĨ":3216,"è¡¨æ¼Ķ":3217,"åĲī":3218,"æ¦Ĥå¿µ":3219,"è¿Ŀ":3220,"çĥ¹":3221,"è§Ħæ¨¡":3222,"åĵ²":3223,"æīĺ":3224,"çĴ":3225,"çļĦçĶµå½±":3226,"çıł":3227,"åĿ¦":3228,"åĨĻä¸Ģç¯ĩ":3229,"å¤§æ°Ķ":3230,"éĺ²æŃ¢":3231,"èĻ«":3232,"çļĦåİŁåĽł":3233,"æĭ¼":3234,"è¯º":3235,"å±ķçİ°":3236,"ä¸Ĭæµ·":3237,"Ð°":3238,"é¥ª":3239,"èī²å½©":3240,"ä¸Ģç»Ħ":3241,"æĲħ":3242,"æĿĢ":3243,"åį±éĻ©":3244,"çķªèĮĦ":3245,"è§Ī":3246,"åĭķ":3247,"éĢīé¡¹":3248,"ä¼łæĴŃ":3249,"å®¤åĨħ":3250,"åĶĲ":3251,"ä¾§":3252,"åĨł":3253,"çº½":3254,"å¤§å°ı":3255,"ä»°":3256,"è§Ħå¾ĭ":3257,"ä»Ģä¹Īæĺ¯":3258,"äººå·¥æĻºèĥ½çļĦ":3259,"çĶŁæĪĲä¸Ģæ®µ":3260,"ä¼Ĭ":3261,"é£ŁçĶ¨":3262,"è®¿éĹ®":3263,"åĮĸåĴĮ":3264,"æľ¬æĸĩ":3265,"æľºåĻ¨åŃ¦ä¹łç®Ĺæ³ķ":3266,"éĿ¢åĮħ":3267,"è¶³çĲĥ":3268,"èĥŀ":3269,"èĩªè¡Įè½¦":3270,"åĢŁ":3271,"éķ¿åº¦":3272,"å¼±":3273,"åĩī":3274,"ä¹¦ç±į":3275,"æĢ§åĪ«":3276,"çģ¾å®³":3277,"æĶ¶åħ¥":3278,"åŃĺåĤ¨":3279,"èħ¿":3280,"æĭĽ":3281,"æĽ´å®¹æĺĵ":3282,"60":3283,"çļĦæĢ»":3284,"æĶ»åĩ»":3285,"ç¼ºä¹ı":3286,"åįļçī©":3287,"ç¾İå¥½çļĦ":3288,"ä¸ŃæľĢ":3289,"ä¹Ŀ":3290,"èµĸ":3291,"çļĦä»»åĬ¡":3292,"çļĦåĨħå®¹":3293,"è¿Ľå±ķ":3294,"æĪ¿éĹ´":3295,"ĽåĽ´":3296,"åı¯ä»¥çĶ¨äºİ":3297,"è´ŁéĿ¢å½±åĵį":3298,"ä»Ķ":3299,"é«ĺåħ´":3300,"ä¸»äºº":3301,"æľĥ":3302,"æµªè´¹":3303,"ç§¯æŀģçļĦ":3304,"è¿ħ":3305,"èĵĿèī²":3306,"ç®ĢçŁŃ":3307,"è¡£æľį":3308,"å°¤åħ¶":3309,"æĻļä¸Ĭ":3310,"åĩ½":3311,"æĲħæĭĮ":3312,"åħµ":3313,"çļĦçĥŃ":3314,"æĺ¾ç¤º":3315,"æ½ľåľ¨":3316,"æľµ":3317,"ç§įç±»":3318,"è´¹çĶ¨":3319,"åİŁçĲĨ":3320,"ä¸Ģå®¶":3321,"æĤ¦":3322,"æľºåĪ¶":3323,"æĢ§èĥ½":3324,"çļĩ":3325,"åĴĮä¸į":3326,"äººåı£":3327,"éľĢè¦ģèĢĥèĻĳ":3328,"ç¼ĸç¨ĭ":3329,"åĴĮæĮĳæĪĺ":3330,"çļĦåģ¥åº·":3331,"çļĦç¨":3332,"åĪĨæŀĲåĴĮ":3333,"çļĦç¬¬":3334,"åĴĮå®īåħ¨":3335,"ç¯®":3336,"ä¸ªç³ĸæŀľ":3337,"çĵ¶":3338,"èĢ³":3339,"åİ»äºĨ":3340,"Ġ'":3341,"åīįå¾Ģ":3342,"çĪ±å¥½":3343,"éķľ":3344,"æĪ·å¤ĸ":3345,"åĮºåĿĹ":3346,"çļĦç½":3347,"å¿ł":3348,"å¼łä¸ī":3349,"åľ¨ä¸Ģä¸ª":3350,"åįģåĪĨ":3351,"åĪĨç±»ä¸º":3352,"ä»ª":3353,"éĢ»è¾ĳ":3354,"éĽ·":3355,"å®¶åħ·":3356,"åį«çĶŁ":3357,"åı¯ä»¥éĢīæĭ©":3358,"æ¬£èµı":3359,"åĮ»çĸĹä¿Ŀåģ¥":3360,"ç»ĵè®º":3361,"çļĦæ´»åĬ¨":3362,"çĽĳçĿ£":3363,"åħ¨éĿ¢":3364,"åĬ¨åĬĽ":3365,"åŁºåĽł":3366,"åı¯åĨįçĶŁ":3367,"èĭ±åĽ½":3368,"åħļ":3369,"åĪĨå¸ĥ":3370,"çļĦç¥":3371,"çļĦç¤¾ä¼ļ":3372,"èĩªä¸»":3373,"199":3374,"è®°å¿Ĩ":3375,"åĪĨç»Ļ":3376,"åŃĲçļĦ":3377,"æģĴ":3378,"æ¡Į":3379,"ç¾İåħĥ":3380,"å¾Ĺåĩº":3381,"æ¸©æļĸ":3382,"ä½łèĥ½":3383,"æĶ¿æ²»":3384,"éĵħ":3385,"ä¸įæĸŃåľ°":3386,"äºĨè®¸å¤ļ":3387,"æĪĳä»¬å°Ĩ":3388,"åħ¬æŃ£":3389,"åĴĮåĪĨæŀĲ":3390,"çļĦç©º":3391,"é¡¾å®¢":3392,"åĴĮæľįåĬ¡":3393,"æĪĲåĪĨ":3394,"èº«å¿ĥ":3395,"è¹Ī":3396,"å°½éĩı":3397,"åı¯ä»¥ä¸º":3398,"ç¶":3399,"æĸĩæ¡Ī":3400,"ç¿°":3401,"çªĹ":3402,"éĢĥ":3403,"çĬ¬":3404,"çļĦçĹ":3405,"çļĦæĮĩ":3406,"èĤ´":3407,"åı¯ä»¥å¸®åĬ©æĪĳä»¬":3408,"çļĦæ²ŁéĢļ":3409,"çī¹èī²":3410,"æĪĳå¾Ī":3411,"èĭĹ":3412,"ä¾¿åĪ©":3413,"è´¦":3414,"éļ¾ä»¥":3415,"æıĲéĨĴ":3416,"ä¸İåħ¶ä»ĸ":3417,"äº§çĶŁäºĨ":3418,"ä¸ĬéĿ¢":3419,"æ¶īåıĬåĪ°":3420,"è¯ģæį®":3421,"æĪĸåħ¶ä»ĸ":3422,"å¤©ç©º":3423,"ä½ĵèĤ²":3424,"ä¸įçŁ¥éģĵ":3425,"åĪ©çĽĬ":3426,"çļĦæ¸©":3427,"æ°ı":3428,"èĪŀè¹Ī":3429,"çļĦçĿ":3430,"åı¯èĥ½ä¼ļå¯¼èĩ´":3431,"å±ħæ°ĳ":3432,"Tom":3433,"çĽĽ":3434,"åı¯ä»¥å°Ĩ":3435,"å¯¹æīĭ":3436,"åĨ²çªģ":3437,"è§Ĵåº¦":3438,"çİĽä¸½":3439,"èĦı":3440,"åĴĮæ²»çĸĹ":3441,"äºĭçī©":3442,"çļĦäºĭæĥħ":3443,"éĹ®é¢ĺçļĦ":3444,"çĵľ":3445,"çĽ®çļĦåľ°":3446,"åĵº":3447,"ç§įæĹı":3448,"åįıä½ľ":3449,"æ½®":3450,"çł´åĿı":3451,"ç»ĵæĿŁ":3452,"åīįæĻ¯":3453,"èĦ¸":3454,"åįĸ":3455,"å¸®æĪĳ":3456,"åĲ«ä¹ī":3457,"æľĢæĸ°":3458,"æĽ´æĸ°":3459,"å¤ªéĺ³ç³»":3460,"ç¾İä¸½çļĦ":3461,"éĢ²":3462,"éĹ²":3463,"ç»Ĩèĥŀ":3464,"å¹ķ":3465,"åħ·å¤ĩ":3466,"è®ºæĸĩ":3467,"æĪĺäºī":3468,"æľĢå¥½":3469,"æ³ķè§Ħ":3470,"çľĭèµ·æĿ¥":3471,"å¦Ļ":3472,"äº§åĵģçļĦ":3473,"å½¢å®¹":3474,"åŃ¤çĭ¬":3475,"or":3476,"åĽŀæĶ¶":3477,"ä¸ģ":3478,"å£®":3479,"ä¸°å¯ĮçļĦ":3480,"äº¿":3481,"å®Įæķ´":3482,"èĴ¸":3483,"åĪĨæĪĲ":3484,"çĸ²":3485,"åĩºèī²":3486,"å¡ŀ":3487,"æķ¢":3488,"å½¼æŃ¤":3489,"çļĦæĶ¯æĮģ":3490,"å¿ĥåĴĮ":3491,"çľŁçļĦ":3492,"æįķ":3493,"ä¾ĽåºĶ":3494,"ä¾µ":3495,"çļĦçŁ¥è¯Ĩ":3496,"éĩįè§Ĩ":3497,"å·¨å¤§":3498,"ä¿ĿéĻ©":3499,"æľīè®¸å¤ļ":3500,"é»Ħèī²":3501,"é»ĺ":3502,"å®¤æ°Ķä½ĵ":3503,"åģĩè®¾":3504,"åįļçī©é¦Ĩ":3505,"æĪĲå°±":3506,"åĮºåĿĹéĵ¾":3507,"ä¸įæĸŃåıĳå±ķ":3508,"åĪĨåĪ°":3509,"çļĦæ¯Ķ":3510,"è¿ª":3511,"ä¿®æĶ¹":3512,"äº¤äºĴ":3513,"çī©ç§į":3514,"éĵħç¬Ķ":3515,"åĦ¿ç«¥":3516,"æİ¥ä¸ĭæĿ¥":3517,"è¯įè¯Ń":3518,"ä¸Ģå¤©":3519,"çĤ¸":3520,"å§¿":3521,"æŁĲä¸ª":3522,"åĲĮäºĭ":3523,"åĩ½æķ°":3524,"çļĦæĭ":3525,"çĶµæ±ł":3526,"æŃĮæĽ²":3527,"çļĦåıĺåĮĸ":3528,"ãģ":3529,"è°ĥåĳ³":3530,"æĹ¢":3531,"è¯ģæĺİ":3532,"å¡«":3533,"è·ĳæŃ¥":3534,"çļĦæ·":3535,"éģĵè·¯":3536,"å¿ħè¦ģçļĦ":3537,"å¤ªéĺ³èĥ½":3538,"çļĦçĿ¡":3539,"åĪĩæĪĲ":3540,"è¶³å¤ŁçļĦ":3541,"åħĭæľį":3542,"åħħè¶³":3543,"24":3544,"å·´é»İ":3545,"å¼ºçĥĪ":3546,"ç¢İ":3547,"ç²Ĵ":3548,"è¢«è®¤ä¸º":3549,"åĴĮåºĶçĶ¨":3550,"çĪĨ":3551,"èķī":3552,"ä¸ĸçķĮä¸ĬæľĢ":3553,"åĵ²åŃ¦":3554,"çļĦéŁ³ä¹Ĳ":3555,"æĺİæĺ¾":3556,"åĲ«æľī":3557,"åĵºä¹³":3558,"æģ©":3559,"éªĮè¯ģ":3560,"ä¹ĭå¤ĸ":3561,"çĹħæ¯Ĵ":3562,"å«Į":3563,"äººå£«":3564,"łéģĵ":3565,"è·¨":3566,"åħīçº¿":3567,"éĩįçĤ¹":3568,"æľīæķĪçļĦ":3569,"è®©ä½ł":3570,"æıĲåĪ°äºĨ":3571,"åĴĮå»ºè®®":3572,"å®¾":3573,"è£¤":3574,"ä»ĸåľ¨":3575,"ä¿ĿæĬ¤çİ¯å¢ĥ":3576,"åĨįæ¬¡":3577,"ä¸Ģæ¬¾":3578,"èµĦéĩĳ":3579,"åĲ¬èµ·æĿ¥":3580,"åĨħå¿ĥ":3581,"æĽ´å¿«":3582,"ä¹ŁéľĢè¦ģ":3583,"èİĵ":3584,"ãĢģãĢĬ":3585,"ç¿Ĵ":3586,"éĴ¢":3587,"ç´§å¼ł":3588,"çŃīéĹ®é¢ĺ":3589,"å¸®åĬ©æĤ¨":3590,"åŁĥ":3591,"ä¸ĭæĸĩ":3592,"éĤ£éĩĮ":3593,"éħĴåºĹ":3594,"èĥ½åĬĽåĴĮ":3595,"ĠâĢľ":3596,"æ·¡":3597,"çļĦçĿ¡çľł":3598,"æ¼Ķåĳĺ":3599,"æ¦Ĥæĭ¬":3600,"çº¦ç¿°":3601,"èħĲ":3602,"å¸ĮæľĽè¿ĻäºĽ":3603,"æ³¨æĦıåĬĽ":3604,"æĹ¨åľ¨":3605,"Ġä½¿çĶ¨":3606,"ç»ķ":3607,"æģ¢":3608,"èĩªèº«":3609,"æ¶µ":3610,"ç¢į":3611,"é¦Ļèķī":3612,"äºĭæķħ":3613,"çļĦæķ°éĩı":3614,"è´¨éĩıåĴĮ":3615,"æĸĩç«łä¸Ń":3616,"æ¯ıä¸ªæľĭåıĭ":3617,"åĩĨç¡®æĢ§":3618,"çľŁå®ŀ":3619,"åı¦ä¸Ģä¸ª":3620,"çļĦæĸ°":3621,"è¡¨è¾¾äºĨ":3622,"éģµå®Ī":3623,"åīª":3624,"åľ¨äºİ":3625,"å½ĵæĹ¶":3626,"âĢ¦":3627,"æ³ķåĽ½":3628,"çļĦæĻ¯":3629,"çļĦæ¶":3630,"æĺ¯ä¸Ģä½į":3631,"çĤİ":3632,"èĢĮæĺ¯":3633,"åĴĮè°":3634,"ç´§æĢ¥":3635,"æĥ³æ³ķ":3636,"çļĦè¿ĩç¨ĭ":3637,"æ°Ķæ¸©":3638,"æĻºæħ§":3639,"åł¡":3640,"åĪĺ":3641,"è®¤çŁ¥":3642,"åĢº":3643,"åĵģç§į":3644,"åı¯åĨįçĶŁèĥ½æºĲ":3645,"çļĦæ®":3646,"èıľåĵģ":3647,"éĢıæĺİ":3648,"çİ°åľº":3649,"é¼ł":3650,"çĽĳç®¡":3651,"ç¾İå¥½":3652,"èľĤ":3653,"å£¤":3654,"éĽĦ":3655,"èº«ä»½":3656,"éļĶ":3657,"èıľèĤ´":3658,"å¯Ĵ":3659,"çļĦæ²»":3660,"çĬ¯ç½ª":3661,"æ©ĻåŃĲ":3662,"æ´Ľ":3663,"æĹ§":3664,"æİ¨çĲĨ":3665,"è´Łè´£":3666,"å®ĥæĺ¯":3667,"æª":3668,"éľĢè¦ģæ³¨æĦıçļĦæĺ¯":3669,"çļĦæĻºèĥ½":3670,"åħ¶ä¸ŃçļĦ":3671,"éŃĶæ³ķ":3672,"çļĦåŁºç¡Ģ":3673,"çĿĽ":3674,"åŁºéĩĳ":3675,"çº½çº¦":3676,"å°ıæĺİæľī":3677,"ä¼¦çĲĨ":3678,"çļĦäº§åĵģ":3679,"çļĦæ¼":3680,"èģĺ":3681,"çļĦç²¾":3682,"èĳ¡":3683,"åı¯èĥ½å¯¼èĩ´":3684,"åİ¨":3685,"çĥ¹é¥ª":3686,"ä¹īè¯į":3687,"ä»¥ä¸ĭæĸĩæľ¬":3688,"åıĺæĪĲ":3689,"å¹³æĸ¹":3690,"çĺ":3691,"æľĢå¥½çļĦ":3692,"ä»İèĢĮæıĲé«ĺ":3693,"çĲĨè§£åĴĮ":3694,"è®¯":3695,"æıĲä¾Ľä¸ĢäºĽ":3696,"å°ıåŃ¦":3697,"æī®":3698,"æĻºèĥ½åĮĸ":3699,"éľĢæ±ĤåĴĮ":3700,"åľ¨è¿Ļ":3701,"åį³ä½¿":3702,"æĸ¼":3703,"çĹĩçĬ¶":3704,"ä¹ĭå¤Ħ":3705,"çļĦæİªæĸ½":3706,"æ·±è¿ľ":3707,"åĵªä¸ª":3708,"å²©":3709,"åĸľå¥½":3710,"ç§Ł":3711,"é³":3712,"èĤ¯":3713,"æĸ¹éĿ¢çļĦ":3714,"èĲĦ":3715,"ä¸Ńæĸĩ":3716,"åħ±æľī":3717,"çĶ¨æĪ·çļĦ":3718,"åĮ»éĻ¢":3719,"èĳ¡èĲĦ":3720,"æ¹¾":3721,"ĠåĪ¶å®ļ":3722,"æģ¢å¤į":3723,"æĿ¥å®ŀçİ°":3724,"ä¸ŃæıĲåıĸåĩº":3725,"æĺ¨å¤©":3726,"æķ°æį®åĴĮ":3727,"Ø§":3728,"åģıå¥½":3729,"åĨĴéĻ©":3730,"æ¡£":3731,"åĬ¨è¯į":3732,"çĻĮ":3733,"ç¦ģ":3734,"å¥³åŃ©":3735,"è½¬åĮĸ":3736,"æĺŁçĲĥ":3737,"æĹ©ä¸Ĭ":3738,"æīĢæľīçļĦ":3739,"è¿ħéĢŁ":3740,"æĢķ":3741,"æķ£æŃ¥":3742,"æĬ«":3743,"çļĦä¸ĢäºĽ":3744,"çļĦæ¨":3745,"çļĦå¤©æ°Ķ":3746,"å¹´æĿ¥":3747,"é²ģ":3748,"çģµæ´»":3749,"çĽĳæİ§":3750,"åģ¥åº·é¥®é£Ł":3751,"çŁ¿":3752,"åĲĮæł·":3753,"ĊĊ":3754,"å½ĵçĦ¶åı¯ä»¥":3755,"åħĪçĶŁ":3756,"èģª":3757,"åĢĴåħ¥":3758,"è¿Ļä¸ªåı¥åŃĲ":3759,"å¿½":3760,"ä¸įè¶³":3761,"çļĦåŁºæľ¬":3762,"æµ®":3763,"çĶµåŃĲéĤ®ä»¶":3764,"æĽ¾ç»ı":3765,"èĸĦ":3766,"Ġ8":3767,"å®ĥåı¯ä»¥":3768,"åĨ³äºİ":3769,"åıĸåĨ³äºİ":3770,"ç»´æĮģ":3771,"ç½ļ":3772,"åħ¬ä¼Ĺ":3773,"åĪ°è¾¾":3774,"å®īè£ħ":3775,"çļĦæĥħç»ª":3776,"æĸ°éĹ»æĬ¥éģĵ":3777,"ä¸ĭéĻį":3778,"åįķä½į":3779,"æŃ£å¸¸":3780,"éĻĦè¿ĳ":3781,"åıĤèĢĥ":3782,"çĶŁç´ł":3783,"ä¸Ģç¯ĩæĸĩç«ł":3784,"èĤº":3785,"åħ·ä½ĵçļĦ":3786,"ç¾¤ä½ĵ":3787,"åºĦ":3788,"å¿ĥæĢģ":3789,"æĺĵäºİ":3790,"çļĦæ³ķ":3791,"ç´¯":3792,"ãĢĭãĢģãĢĬ":3793,"å®ĹæķĻ":3794,"åĩĨç¡®åľ°":3795,"çļĦä¸»":3796,"çļĦä¸Ģç§į":3797,"æľīä¸ĢäºĽ":3798,"æ²¿":3799,"ä¿¡åı·":3800,"æĸĩæľ¬åĨħå®¹":3801,"åľŁå£¤":3802,"äººå·¥æĻºèĥ½åľ¨":3803,"çļĦæĢģ":3804,"çļĦç³ĸ":3805,"æķ´ä½ĵ":3806,"ç»Łè®¡":3807,"è¦Ĩ":3808,"ç¾İçļĦ":3809,"éģŃ":3810,"éł":3811,"æĪĲç»©":3812,"èĬĤå¥ı":3813,"èĩ³åħ³":3814,"å¾ªçİ¯":3815,"èį·":3816,"åĵºä¹³åĬ¨çī©":3817,"40":3818,"æĦŁåĴĮ":3819,"çļĦæĥħåĨµä¸ĭ":3820,"æī¾åĩº":3821,"æī¬":3822,"èĢħçļĦ":3823,"âĢĿãĢģ":3824,"çģ°":3825,"åıĮæĸ¹":3826,"çļĦæĦŁè§ī":3827,"æİĺ":3828,"çļĦç»ĵæŀľ":3829,"äºĴçĽ¸":3830,"åİĭåĬĽåĴĮ":3831,"å¹¶ä¸º":3832,"è½¨":3833,"ä¸¦":3834,"ç»Ļä½ł":3835,"æĮĩåĩº":3836,"æ¯ķ":3837,"ä¼Ļ":3838,"æĳ©":3839,"åĲ¬è¯´":3840,"éĺ»":3841,"ä¹Łå¾Ī":3842,"åį°åº¦":3843,"å¦ĤæŃ¤":3844,"ç¦»å¼Ģ":3845,"éĺ¶æ®µ":3846,"çļĦæ²»çĸĹ":3847,"ä¾Ŀèµĸ":3848,"çļĦæ¸¸":3849,"èĮĥåĽ´åĨħ":3850,"th":3851,"è¿Ļæ¬¾":3852,"åħįçĸ«":3853,"å¯¹äººç±»":3854,"é¡µ":3855,"é¢ĨåŁŁä¸Ń":3856,"çļĦéĢīæĭ©":3857,"åĵģå°Ŀ":3858,"æĪ´":3859,"å²¸":3860,"åĬŀåħ¬":3861,"çĶµè¯Ŀ":3862,"æĺ¯æĪĳ":3863,"ä¸¤ç§į":3864,"å¹¶æ²¡æľī":3865,"åĭĩæ°Ķ":3866,"äººä»¬çļĦ":3867,"çªģçĦ¶":3868,"çĶ·åŃĲ":3869,"è¿Ļä¸¤ä¸ª":3870,"åİŁå§ĭ":3871,"çļĦä¸Ģéĥ¨åĪĨ":3872,"å¤§èĩªçĦ¶":3873,"çļĦæŃ¥":3874,"åĪ¸":3875,"åı¦ä¸Ģ":3876,"çļĦç½ĳ":3877,"æĪĳæĺ¯":3878,"ä¸Ģå®ļçļĦ":3879,"æıĴ":3880,"çļĦæł¸":3881,"éĩĩåıĸæİªæĸ½":3882,"æĺİå¤©":3883,"å·¨å¤§çļĦ":3884,"è¿ĻæĦıåĳ³çĿĢ":3885,"ä¸ĵå®¶":3886,"çłĶåıĳ":3887,"å¯º":3888,"æĦŁåħ´è¶£":3889,"çļĦè¿ĲåĬ¨":3890,"è´´":3891,"äººä½ĵ":3892,"çļĦçĬ":3893,"ä¼ļå¯¼èĩ´":3894,"æĪĲæŀľ":3895,"çģŃ":3896,"çĹħäºº":3897,"å¹´ä»£":3898,"æķĻå¸Ī":3899,"æīĭæ®µ":3900,"è®¤çľŁ":3901,"è§Ĩä¸º":3902,"ä¿¡ä»°":3903,"èıĮ":3904,"çļĦæİĴ":3905,"èĭ¥":3906,"èĢĮè¨Ģ":3907,"åĮ¹":3908,"æ¸©å®¤æ°Ķä½ĵ":3909,"æ¶ĪèĢĹ":3910,"ç´«":3911,"åİĺ":3912,"è¾ħåĬ©":3913,"çļĦæīĢ":3914,"èĦī":3915,"æĩĤ":3916,"çİ¯å¢ĥæ±¡æŁĵ":3917,"æ¬§æ´²":3918,"çı¾":3919,"è¢«ç§°ä¸º":3920,"å¾Īå¤§":3921,"åıĸä»£":3922,"åıĬåħ¶":3923,"ç»ŃåĨĻ":3924,"å¸¸å¸¸":3925,"æıĲä¾Ľä¸Ģä¸ª":3926,"çļĦé¢ľèī²":3927,"åĪĢ":3928,"çŃīå¾ħ":3929,"éķ¿æĹ¶éĹ´":3930,"ä»ĭç»įäºĨ":3931,"ç¼ºçĤ¹":3932,"çļĦæ®µ":3933,"åľĪ":3934,"æľŁå¾ħ":3935,"Ġ6":3936,"æĬĢæľ¯åĴĮ":3937,"ä¸ĭåįĪ":3938,"âĢĿãĢģâĢľ":3939,"é¸¡èĤī":3940,"çľĭçľĭ":3941,"æĦīå¿«":3942,"ä¹±":3943,"æĸ¹ç¨ĭ":3944,"åı¯èĥ½éľĢè¦ģ":3945,"å§ľ":3946,"åĲĪåĲĮ":3947,"å®ĮæĪĲä»»åĬ¡":3948,"èĬĤçº¦":3949,"çķĻä¸ĭ":3950,"å¹³éĿ¢":3951,"ä¼łè¾¾":3952,"çļĦè¯Ńè¨Ģ":3953,"ä¼¸":3954,"å¼ķåĬĽ":3955,"ä¼¯":3956,"æĪĳåĸľæ¬¢":3957,"èģªæĺİ":3958,"Ð¾":3959,"éĩĬæĶ¾":3960,"çļĦç¼":3961,"åĴĮç®¡çĲĨ":3962,"ä»¥æıĲé«ĺ":3963,"èµ¢":3964,"å§ĵ":3965,"é¡ºåºı":3966,"çº¤":3967,"é¢ĨåŁŁçļĦåºĶçĶ¨":3968,"çī©çĲĨåŃ¦":3969,"æĭĵ":3970,"è°Ĭ":3971,"èİī":3972,"åħ¬å¹³":3973,"çŀ":3974,"çļĦæŀ":3975,"çļĦè®¾è®¡":3976,"éĻ·":3977,"å°±åı¯ä»¥":3978,"çļ®èĤ¤":3979,"å¤ļæł·æĢ§":3980,"æı´":3981,"Ġx":3982,"ç²¾åĬĽ":3983,"çļĦæ½":3984,"çº¯":3985,"åħħæ»¡äºĨ":3986,"çļĦæ®µèĲ½":3987,"æĴ°":3988,"å¯Ĩçłģ":3989,"åħĶ":3990,"çļĦæĦıä¹ī":3991,"çļĦæıĲ":3992,"èĢĥè¯ķ":3993,"å¤®":3994,"éĹª":3995,"å½Ĵç±»":3996,"å°±ä¼ļ":3997,"çļĦæıı":3998,"è¿ĲçĶ¨":3999,"åĪºæ¿Ģ":4000,"æĸ°åŀĭ":4001,"ç§įæ¤į":4002,"åħ¬å¼ı":4003,"åı¯ä»¥æıĲä¾Ľ":4004,"èº«ä½ĵåĴĮ":4005,"çĲ´":4006,"æ¼Ĥ":4007,"å¹¶å°Ĩ":4008,"æ»¤":4009,"çļĦæ¨¡":4010,"éĩįåĨĻ":4011,"éĺµ":4012,"èĲĿ":4013,"æī®æ¼Ķ":4014,"åĬłå¯Ĩ":4015,"ä¸Ģé¦ĸ":4016,"çº¹":4017,"åĪĻæĺ¯":4018,"æ®ĸ":4019,"æĹ¶åĪ»":4020,"èĬĿ":4021,"è§ĦèĮĥ":4022,"æ¸ħåįķ":4023,"éģİ":4024,"æ¸¸å®¢":4025,"çļĦè¿ĩç¨ĭä¸Ń":4026,"å®ŀæĹ¶":4027,"æĺ¯ä¸Ģéĥ¨":4028,"åľºæīĢ":4029,"æİ¨åĩº":4030,"æĤī":4031,"é»ĳèī²":4032,"ç»ıçĲĨ":4033,"æĪĳåľ¨":4034,"çĽĴ":4035,"çļĦçŁŃ":4036,"å®¢æľį":4037,"åıĹä¼Ĺ":4038,"åĴĮæĥħæĦŁ":4039,"éĻĪè¿°":4040,"æĮĩæłĩ":4041,"è¡ĵ":4042,"ä½ĵéĩį":4043,"è¿Ļå®¶":4044,"è¿Ľè¡ĮäºĨ":4045,"éĺ´":4046,"',":4047,"æĦıæĢĿ":4048,"å¿ĥæĥħ":4049,"å¾Ģå¾Ģ":4050,"è²Į":4051,"åĴĮè°Ĳ":4052,"ç¡®å®ŀ":4053,"è°ĥèĬĤ":4054,"æľĢé«ĺ":4055,"ç»ĻäºĪ":4056,"æĽ´ä¸º":4057,"çļĦçĶŁæ´»æĸ¹å¼ı":4058,"å¿ĥçĲĨåģ¥åº·":4059,"æľīçļĦ":4060,"çĻ¼":4061,"æĪĳä»¬çļĦçĶŁæ´»":4062,"____":4063,"åıĸåĩº":4064,"æĽ´æľī":4065,"çŃīåĽłç´ł":4066,"æĬĢæľ¯æĿ¥":4067,"éĩİçĶŁ":4068,"çļĦæĦıæĢĿ":4069,"å¹«":4070,"å¤§åŀĭ":4071,"çº·":4072,"åģļå¥½":4073,"çļĦæľįåĬ¡":4074,"ç©¿çĿĢ":4075,"èĩªçĦ¶çģ¾å®³":4076,"æ¸łéģĵ":4077,"æľīéĻĲ":4078,"æĸĩæĺİ":4079,"ä¼ĺæĥł":4080,"çĮİ":4081,"èİ«":4082,"æµ·æ»©":4083,"åĭĴ":4084,"è¦ģæ³¨æĦı":4085,"is":4086,"æķ°æį®è¿Ľè¡Į":4087,"ç¤¾ä¼ļçļĦ":4088,"èĬ±åĽŃ":4089,"é¢Ĺç³ĸæŀľ":4090,"åľºåĲĪ":4091,"åĲįä¸º":4092,"çĪ¬":4093,"ç§ĳå¹»":4094,"å¼Ĥå¸¸":4095,"çĽĹ":4096,"éĢīæĭ©éĢĤåĲĪ":4097,"ä¼łç»ŁçļĦ":4098,"æĺŁæľŁ":4099,"åıªèĥ½":4100,"æ¯ıæ¬¡":4101,"åįıè°ĥ":4102,"ç¡®è®¤":4103,"ç¾Ĭ":4104,"äººåľ¨":4105,"Ġå»ºç«ĭ":4106,"å·¥èīº":4107,"åı¥åŃĲä¸Ń":4108,"åŃĲåĴĮ":4109,"æľĢå¤§çļĦ":4110,"Ġ20":4111,"å¼Ł":4112,"åºĶè¯¥æĺ¯":4113,"çļĦæ¢":4114,"è¢«å¹¿æ³Ľ":4115,"ä¸¥æł¼":4116,"æĤ²":4117,"å±ı":4118,"æµģçķħ":4119,"åıĭè°Ĭ":4120,"ĊĠĠ":4121,"æīĵå¼Ģ":4122,"åĴĮçĲĨè§£":4123,"æ¯«":4124,"æħ¢æħ¢":4125,"åı¯èĥ½çļĦ":4126,"å¹«åĬ©":4127,"ä¸Ģé¡¹":4128,"æ·ĭ":4129,"åĪĳ":4130,"åŃ¸ç¿Ĵ":4131,"æ¶Ĥ":4132,"åĲĪçī©":4133,"çĽŁ":4134,"å¤§èĦĳ":4135,"é¢ĨåŁŁçļĦ":4136,"åĵªéĩĮ":4137,"å¤ļæķ°":4138,"åħ±äº«":4139,"åıĳæĺİ":4140,"æĦ¿æĦı":4141,"æĽ´é«ĺ":4142,"çĪ±çļĦ":4143,"ç»´çĶŁç´ł":4144,"å°ıçļĦ":4145,"å»ºè®®æĤ¨":4146,"äº§ä¸ļ":4147,"éĢļå¸¸æĺ¯":4148,"éĩįéĩı":4149,"åĴĮæ°´":4150,"èĴĻ":4151,"åĶ¯":4152,"è¿ĻäºĽéĹ®é¢ĺ":4153,"åİĤ":4154,"æŁ¥çľĭ":4155,"çļĦæ¼Ķ":4156,"çļĦæĶ¶":4157,"æĦıè§ģ":4158,"æľīè¶£çļĦ":4159,"éģĩåĪ°äºĨ":4160,"çĽ¸åºĶçļĦ":4161,"åĲ¸æĶ¶":4162,"ä¼ĺåħĪçº§":4163,"çļĦæīĢæľī":4164,"è¯Ńè¨Ģæ¨¡åŀĭ":4165,"é«Ķ":4166,"äºĭé¡¹":4167,"æµĭéĩı":4168,"çļĦæ¶Ī":4169,"ä¸ŃçļĦåºĶçĶ¨":4170,"åĮĻ":4171,"äºĭä¸ļ":4172,"çĶŁæĪĲä¸Ģæ®µä»ĸä»¬çļĦå¯¹è¯ĿåĨħå®¹":4173,"å¸®åĬ©ä½ł":4174,"ä¼Ł":4175,"ä¸Ģç³»åĪĹ":4176,"198":4177,"å¤§çº¦":4178,"åį°è±¡":4179,"è£ģ":4180,"çļĦæł¸å¿ĥ":4181,"åĬłéĢŁ":4182,"èµĦäº§":4183,"ä¼¤å®³":4184,"æĽ¼":4185,"åıĤè§Ĥ":4186,"åĪ¶åº¦":4187,"éĺĶ":4188,"Ġ7":4189,"èĬĤæĹ¥":4190,"éļľç¢į":4191,"è®¾å®ļ":4192,"å®ŀçĶ¨":4193,"æ¥ļ":4194,"æ±¤å§Ĩ":4195,"å¯¸":4196,"çĸ«èĭĹ":4197,"è´«":4198,"çĸ«æĥħ":4199,"ä»¥ä¸ĭåĩłä¸ªæĸ¹éĿ¢":4200,"åŃĹç¬¦":4201,"çĳŀ":4202,"çļĦçī¹çĤ¹":4203,"æķ°ä¸º":4204,"ä½ĨæĪĳ":4205,"ä¹ĭéĹ´çļĦåħ³ç³»":4206,"è®©äººä»¬":4207,"éģµå¾ª":4208,"çĽ¾":4209,"è¿Ĳè¡Į":4210,"éŁ©":4211,"å¥ĸåĬ±":4212,"æĬĵ":4213,"å¿§":4214,"æľĢåĸľæ¬¢çļĦ":4215,"æ·±åĳ¼åĲ¸":4216,"çĻ½èī²":4217,"åĴĮå·¥ä½ľ":4218,"Ġ10":4219,"çļĦç¤¾äº¤":4220,"åĩºè¡Į":4221,"å¾Ĵ":4222,"çļĦæ½ľ":4223,"çļĦæŃĮ":4224,"ä¸Ĭä¸ĭæĸĩ":4225,"æĿĥåĪ©":4226,"à¥":4227,"çļĦæĸĩåĮĸ":4228,"åı¹":4229,"å®ĮåĸĦ":4230,"åı¯ä»¥èĢĥèĻĳ":4231,"æľįè£ħ":4232,"è·Łè¸ª":4233,"ä¸ªæĢ§åĮĸçļĦ":4234,"å£ģ":4235,"æĦıè¯ĨåĪ°":4236,"æĥ³è±¡":4237,"æĳĨ":4238,"ĠÃ·":4239,"åŀĥåľ¾åĪĨç±»":4240,"çĮª":4241,"çº¤ç»´":4242,"ä¸²":4243,"ç¬¬ä¸Ģä¸ª":4244,"Ġ0":4245,"äººéĻħ":4246,"çļĦçľŁ":4247,"åıįæĺł":4248,"éĢļå¸¸ä¼ļ":4249,"è·¯çº¿":4250,"åľ°çĲĥçļĦ":4251,"ç£¨":4252,"å°¿":4253,"åĿĢ":4254,"¸æĵ":4255,"Ðµ":4256,"æĺ¯ä¸ĢåĲį":4257,"æ´ª":4258,"èĥ¸":4259,"éĸĵ":4260,"çŁ¥åĲį":4261,"ä»¥ä¸Ĭæĺ¯":4262,"ç«ŀäºīå¯¹æīĭ":4263,"æī©å¤§":4264,"çī¹å®ļçļĦ":4265,"åĪ·":4266,"æĽ¿ä»£":4267,"çļĦæľºä¼ļ":4268,"ä¸Ĭè¿°":4269,"ä¸ºæĤ¨æıĲä¾Ľ":4270,"ä¸Ńåįİ":4271,"åĽŀå®¶":4272,"æīĢåľ¨":4273,"ä¸ĭåĪĹ":4274,"Ġæķ°æį®":4275,"ä¿Ĺ":4276,"ä½¿çĶ¨çļĦ":4277,"å¹¶ç¡®ä¿Ŀ":4278,"æ´ĭèĳ±":4279,"ä»¥ä¸ĭåĩł":4280,"åį§":4281,"ç£ģ":4282,"æĿ¥è§£åĨ³":4283,"åģ¶":4284,"é£İæĻ¯":4285,"åŃĲéĩĮ":4286,"il":4287,"æĴŀ":4288,"å¿łè¯ļ":4289,"é¦Ļæ¸¯":4290,"çĶ·æĢ§":4291,"æ¶Īæŀģ":4292,"éĩįå¤§":4293,"çļĦæ¬":4294,"åŃĻ":4295,"ħåĬĽ":4296,"æĸĩä»¶":4297,"æĥħæĦŁåĪĨæŀĲ":4298,"åº¦è¿ĩ":4299,"äººå·¥æĻºèĥ½åľ¨åĮ»çĸĹ":4300,"æĦīæĤ¦":4301,"ä¸Ģå¹´":4302,"åĴĮè¡Įä¸º":4303,"ä¸ĢæĿ¡":4304,"æģĭ":4305,"èı²":4306,"æĺ¯éĿŀå¸¸éĩįè¦ģçļĦ":4307,"è¿ĩäºİ":4308,"è¯¢éĹ®":4309,"éľĢè¦ģè¿Ľè¡Į":4310,"éĶĢåĶ®é¢Ŀ":4311,"æ¡Īä»¶":4312,"æ¿ĢåĬ±":4313,"çļĦæ¦Ĥå¿µ":4314,"éº¼":4315,"å¦»":4316,"åĪ©æ¶¦":4317,"çĶĺ":4318,"æ¢ħ":4319,"è¿Ĳè¾ĵ":4320,"åĲĮåŃ¦":4321,"æŀģç«¯":4322,"å¹¶ä¸įæĺ¯":4323,"å¼ºåº¦":4324,"è¿Ķ":4325,"äººåĲį":4326,"åĩºçĶŁ":4327,"æ¼ı":4328,"ä¸Ńå¤®":4329,"ä¸»è§Ĵ":4330,"æľīçĶ¨":4331,"æĬ«èĲ¨":4332,"åĬłä¸Ĭ":4333,"ä¼łéĢĴ":4334,"æ°´ä¸Ń":4335,"å·²ç»ıæĪĲä¸º":4336,"å¤ĸè§Ĥ":4337,"æĿ¥æıĲé«ĺ":4338,"åı¤èĢģ":4339,"éī":4340,"æ°¸è¿ľ":4341,"ĠÃĹ":4342,"åģıè§ģ":4343,"åĴĮæĬĢæľ¯":4344,"æĭĶ":4345,"ä¹Į":4346,"çªģåĩº":4347,"æĺ¯æĪĳä»¬":4348,"500":4349,"çļĦä»·æł¼":4350,"æĬĳ":4351,"è¯ķåĽ¾":4352,"æľīåĵªäºĽ":4353,"èįīèİĵ":4354,"å¤±åİ»":4355,"ä»ģ":4356,"ç¯®çĲĥ":4357,"çļĦç¥ŀ":4358,"çļĦæĢģåº¦":4359,"åĢį":4360,"çļĦæµģ":4361,"åĭĩæķ¢":4362,"æµªæ¼«":4363,"äººå·¥æĻºèĥ½çļĦåıĳå±ķ":4364,"èĬ±è´¹":4365,"æŃī":4366,"æľŁæľĽ":4367,"æ¬²":4368,"æıĲä¾ĽçļĦ":4369,"èĬĤçĤ¹":4370,"æ³Ħ":4371,"ä¼ĺè´¨":4372,"ç¥ĸ":4373,"çĶ³è¯·":4374,"çĪ½":4375,"éī´":4376,"åľŁåľ°":4377,"åľ°ä½į":4378,"çļĦåŁİå¸Ĥ":4379,"å¤ļåħĥ":4380,"æŃĮè¯į":4381,"æ²Ļæĭī":4382,"çļĦç¾İé£Ł":4383,"æŀĦå»º":4384,"å¼ºè°ĥäºĨ":4385,"èĥ¡æ¤Ĵ":4386,"æıĲç¤º":4387,"ä»ĸä»¬åľ¨":4388,"éĩĳå±ŀ":4389,"åĽłä¸ºå®ĥä»¬":4390,"ç»Ļåĩºä¸Ģä¸ª":4391,"èģĮä½į":4392,"åŃĹæ¯į":4393,"è´§å¸ģ":4394,"æĪĲç«ĭ":4395,"ç«ĭåį³":4396,"ç±»åŀĭçļĦ":4397,"ç·":4398,"å¹¿æ³ĽçļĦåºĶçĶ¨":4399,"Ġç¡®å®ļ":4400,"åłµ":4401,"æĹ¶åħī":4402,"åı¯è¡Į":4403,"åįľ":4404,"ä¸įå¤ª":4405,"ä¼¼ä¹İ":4406,"çĶŁæĹ¥":4407,"éĶħä¸Ń":4408,"æĺ¯åĲ¦æľī":4409,"ç¬¦åı·":4410,"æĴĴ":4411,"æ¦Ħ":4412,"åĪĽä¸ļ":4413,"çĭĹçĭĹ":4414,"ä»¥æĿ¥":4415,"æĹ©é¤Ĳ":4416,"è¾£æ¤Ĵ":4417,"è¢«è®¤ä¸ºæĺ¯":4418,"è±ª":4419,"äºĮæ°§åĮĸ":4420,"çļĦæ·±":4421,"æŃ£å¼ı":4422,"æīĭæľ¯":4423,"çļĦæŃ¥éª¤":4424,"çļĦçĸ":4425,"çīĽèĤī":4426,"åĴĮæĹ¶éĹ´":4427,"æĮĸ":4428,"è¿Ļé¡¹":4429,"éĻª":4430,"éĢĤçĶ¨äºİ":4431,"çļĦæŃ£":4432,"åıĤæķ°":4433,"å¿ĥèĦı":4434,"è´¸":4435,"èĻļæĭŁçİ°å®ŀ":4436,"ç¢Ĺ":4437,"è¯·ä½ł":4438,"ä½¿çĶ¨äºĨ":4439,"Ħæ¦Ħ":4440,"å°ıæĿİ":4441,"ç©Ĩ":4442,"è¡Įé©¶":4443,"ç¨®":4444,"çļĦæ¢¦":4445,"ä¼ĳéĹ²":4446,"è±¡å¾ģ":4447,"28":4448,"çĶµåĻ¨":4449,"åħ¬åħ±äº¤éĢļ":4450,"è·ĥ":4451,"èİ±":4452,"æĬķåħ¥":4453,"æĪĳä¹Ł":4454,"åŃ©åŃĲä»¬":4455,"çļĦåħ³ç³»":4456,"åİŁåĪĻ":4457,"åľ¨ä¸ŃåĽ½":4458,"æĹłäºº":4459,"å®īåħ¨æĢ§":4460,"ä¸¾è¡Į":4461,"ä¸ĵæ³¨äºİ":4462,"å¦ĩ":4463,"ï¼ŁâĢĿ":4464,"åłĨ":4465,"åĪĨè§£":4466,"è¿ĳå¹´æĿ¥":4467,"åľ¨è¿ĻéĩĮ":4468,"åĪĽå»ºä¸Ģä¸ª":4469,"å½Ĵç±»ä¸º":4470,"åı£è¯Ń":4471,"ä¸įä»ħä»ħ":4472,"æĽ´å¥½åľ°ç®¡çĲĨ":4473,"æľªçŁ¥":4474,"ä¸įéľĢè¦ģ":4475,"æĺİçĻ½":4476,"al":4477,"23":4478,"æĪĳå°Ĩ":4479,"å«Įçĸĳ":4480,"æĭħå¿ĥ":4481,"éķ¿çļĦ":4482,"ä¾¿æį·":4483,"å¹´è½»äºº":4484,"åĴĮéľĢæ±Ĥ":4485,"çļĦæııè¿°":4486,"åķĨåĬ¡":4487,"çļĦæĳĺè¦ģ":4488,"ä¼ļå¯¹":4489,"åľ°éľĩ":4490,"çļĦä½įç½®":4491,"é£ŀæľº":4492,"çļĦæģ":4493,"åıªè¦ģ":4494,"éļıæľº":4495,"å¹²æī°":4496,"å®¿":4497,"è¿«":4498,"ç¼ĺ":4499,"æħİ":4500,"çļĦçľĭ":4501,"æĤł":4502,"æª¬":4503,"è°ĵ":4504,"åĴĮæķ°æį®":4505,"çļĦè¯Ŀ":4506,"å½ĵä»Ĭ":4507,"ĽçĽ¾":4508,"éĿ¢è¯ķ":4509,"æĮĤ":4510,"æŃ»äº¡":4511,"é½Ĳ":4512,"æĦŁæŁĵ":4513,"éĤ£ä¸ª":4514,"è¿Ļæł·åı¯ä»¥":4515,"å¥½å¤Ħ":4516,"éĻ¤ä»¥":4517,"ç²¾åĩĨ":4518,"æĻ¨":4519,"æĻ®éĢļ":4520,"åĴĮæĬĢèĥ½":4521,"æ¸ħæ´Ĺ":4522,"æ¬º":4523,"æī£":4524,"à¦":4525,"å¼ķåıĳ":4526,"å¦Īå¦Ī":4527,"éĿŀå¸¸å¥½":4528,"åı¯ä»¥çĶ¨":4529,"ç®Ģè¦ģ":4530,"å¹´è½»çļĦ":4531,"è¯¸":4532,"åĮĸåĲĪçī©":4533,"ç»ĦæĪĲéĥ¨åĪĨ":4534,"æľīæľº":4535,"æķ°åŃ¦é¢ĺ":4536,"æĢ»ç»Ł":4537,"ä¿¡çĶ¨":4538,"æĶ¾å¼ĥ":4539,"çķ¶":4540,"ç³»ç»ŁçļĦ":4541,"æĩī":4542,"çļĦæĦŁåıĹ":4543,"èĲ¥éĶĢçŃĸçķ¥":4544,"çĽ¸åıį":4545,"ĠS":4546,"çļĦæĽ":4547,"ç¢º":4548,"çļĦæĳĦ":4549,"re":4550,"æĪª":4551,"å¤±è´¥":4552,"è³ĩ":4553,"łæª¬":4554,"ä½ľä¸ºä¸Ģä¸ª":4555,"åŃĶ":4556,"åįģå¹´":4557,"å¢¨":4558,"èĻİ":4559,"çľĭåĪ°äºĨ":4560,"çİ©åħ·":4561,"ç«¹":4562,"åĲĦåľ°":4563,"èİ·å¾ĹäºĨ":4564,"ä»¥å¸®åĬ©":4565,"éĺĲ":4566,"æ©Ħæ¦Ħ":4567,"Ġä¿ĿæĮģ":4568,"Ġà¤":4569,"äºĮæ°§åĮĸç¢³":4570,"å®īåħ¨åĴĮ":4571,"æįŁå¤±":4572,"æľīæīĢå¸®åĬ©":4573,"æĵİ":4574,"æŀĦæĪĲ":4575,"ä½łåľ¨":4576,"ï¼ļãĢĬ":4577,"åĲİçļĦ":4578,"è¦ĨçĽĸ":4579,"å©ļç¤¼":4580,"äºĶä¸ª":4581,"åħ´å¥ĭ":4582,"am":4583,"è£Ļ":4584,"åıĸå¾ĹäºĨ":4585,"å½ĵåľ°çļĦ":4586,"å¤įæĿĤåº¦":4587,"é¸£":4588,"åĴĮåŃ¦ä¹ł":4589,"åĪ«äºº":4590,"æľīæ²¡æľī":4591,"è¿Ļæľ¬ä¹¦":4592,"æĭħä»»":4593,"ä¼Ļä¼´":4594,"èīºæľ¯å®¶":4595,"æİ¥è§¦":4596,"æĺ¾èĳĹ":4597,"è®©ä»ĸä»¬":4598,"çħİ":4599,"å¾ĭå¸Ī":4600,"ä¸įåĨį":4601,"åį«æĺŁ":4602,"çļĦç³ĸæŀľ":4603,"å¼ķæĵİ":4604,"èŃ¦å¯Ł":4605,"æĪ¿å±ĭ":4606,"åģ¥åº·åĴĮ":4607,"è¿Ļç¯ĩ":4608,"ç§Ĵ":4609,"æĸĩæľ¬ä¸ŃçļĦ":4610,"æĺ¯éĢļè¿ĩ":4611,"ï¼īï¼ļ":4612,"åıĺéĿ©":4613,"é¸Łç±»":4614,"çĲĨå¿µ":4615,"è¡Ģåİĭ":4616,"çļĦé«ĺ":4617,"æ·±è¿ľçļĦå½±åĵį":4618,"æłĩå¿Ĺ":4619,"Ð½":4620,"ä»Ļ":4621,"çĨĬçĮ«":4622,"åĴĮçĽ®æłĩ":4623,"çĩĥæĸĻ":4624,"ä»Ģéº¼":4625,"é¸Ń":4626,"çļĦçĬ¶":4627,"æłĩçŃ¾":4628,"Ð¸":4629,"è¡¨çİ°åĩº":4630,"åĲ¹":4631,"æĢª":4632,"é¡Į":4633,"å¤įæĿĤçļĦ":4634,"æ©Ł":4635,"æĭĸ":4636,"éĩĮçļĦ":4637,"æĢģåº¦":4638,"æĪĲåĬŁçļĦ":4639,"å¾Īæľī":4640,"èĺ":4641,"å¼ºå¤§":4642,"å¤§å¤ļæķ°":4643,"éĩĩåıĸè¡ĮåĬ¨":4644,"å½¢å®¹è¯į":4645,"çĶ·åŃ©":4646,"ä¸Ģèĩ´":4647,"ä¸ºä¸»":4648,"çļĦæĬĢå·§":4649,"æĬµ":4650,"çŃīäºİ":4651,"èµĦæĸĻ":4652,"ä¼łæĦŁ":4653,"åĴĮå¹³":4654,"æĪĳéľĢè¦ģ":4655,"å§ĭç»Ī":4656,"åºĨç¥Ŀ":4657,"æķ¦":4658,"çļĦçľĭæ³ķ":4659,"å®ļåĪ¶":4660,"èģĮåľº":4661,"åı¯èĥ½æĢ§":4662,"å°Ĭæķ¬":4663,"çļĦæ¯ı":4664,"æĽ¿æį¢":4665,"å¹¶å°Ĩåħ¶":4666,"ä¸ªæľĭåıĭ":4667,"åľĭ":4668,"å·¥ç¨ĭå¸Ī":4669,"ä½ľå®¶":4670,"çļĦä¸į":4671,"è½¦ç«Ļ":4672,"è¿Ļé¦ĸ":4673,"åĴª":4674,"å¦Ĩ":4675,"åĪ¶å®ļä¸Ģä¸ª":4676,"å®ļä½į":4677,"åī²":4678,"ä¹Łåľ¨":4679,"å¼Ģå±ķ":4680,"åĴĮèµĦæºĲ":4681,"åĩĿ":4682,"åŃ¦ç§ĳ":4683,"åħĪè¿Ľ":4684,"è¯Ī":4685,"åŁİå¸ĤçļĦ":4686,"æ¢°":4687,"çļĦçĻ":4688,"è´·":4689,"æĺ¯ä¸Ģé¡¹":4690,"éĤĢ":4691,"åĽŀå½Ĵ":4692,"è®¡ç®Ĺæľºç§ĳåŃ¦":4693,"è¿Ļæ¬¡":4694,"å®¢æĪ·æľįåĬ¡":4695,"åĭ¤":4696,"èµ¶":4697,"æł·çļĦ":4698,"NA":4699,"çļĦç´":4700,"çĶµåĬ¨":4701,"æĤ¨å¥½":4702,"å·¥ä½ľæķĪçİĩ":4703,"é©±":4704,"åı¯ä»¥æĺ¯":4705,"æķ°åŃĹåĮĸ":4706,"åĴĮé«ĺ":4707,"è¾ĥé«ĺ":4708,"åħ³éĹŃ":4709,"è½»è½»":4710,"çĭ®":4711,"æĻ®éģį":4712,"åĽ¾åĥıè¯ĨåĪ«":4713,"èĬĤçĽ®":4714,"æĬķèµĦèĢħ":4715,"è±ĨèħĲ":4716,"èŀįåĲĪ":4717,"æŁłæª¬":4718,"è®ĵ":4719,"æĿ¥çľĭ":4720,"çĽ¸æ¯Ķ":4721,"æ°§æ°Ķ":4722,"åºıåĪĹ":4723,"çļĦæŁ":4724,"è®²è¿°äºĨ":4725,"è®¡ç®Ĺæľºè§Ĩè§ī":4726,"åķı":4727,"é¢ĳçİĩ":4728,"æ¯ıåĳ¨":4729,"æĹ¥å¸¸çĶŁæ´»":4730,"å±ķå¼Ģ":4731,"è£Ĥ":4732,"æĥľ":4733,"2021":4734,"èıľåįķ":4735,"ä¼łæĦŁåĻ¨":4736,"è°¨":4737,"èĬ³":4738,"çļĦæķĪæŀľ":4739,"å¯¿åĳ½":4740,"éħª":4741,"æııè¿°äºĨ":4742,"åıĳåĩº":4743,"åº¦åģĩ":4744,"æĹ¥å¸¸çĶŁæ´»ä¸Ń":4745,"å½±åĥı":4746,"ä¸Ģåľº":4747,"è¶ĬæĿ¥è¶Ĭå¤ļ":4748,"èŃ¦æĸ¹":4749,"è½¬æį¢ä¸º":4750,"è½¬åĮĸä¸º":4751,"æľĪçĲĥ":4752,"çĸ²åĬ³":4753,"çī©æµģ":4754,"æŁ¥æī¾":4755,"èµ¢å¾Ĺ":4756,"çİ»":4757,"å¯¹åħ¶":4758,"éĥ½åı¯ä»¥":4759,"ä¼łç»ŁæĸĩåĮĸ":4760,"çĥŃéĩı":4761,"çĩķ":4762,"ÑĢ":4763,"æĹłéĻĲ":4764,"çĥŃæĥħ":4765,"ãĢĭï¼Į":4766,"æĴĳ":4767,"å¹¶æł¹æį®":4768,"æĤ¬":4769,"ä¸Ģä»¶":4770,"åħ³éĶ®ä¿¡æģ¯":4771,"è¢«åĳĬ":4772,"çĽĨ":4773,"éĿŀå¸¸æľī":4774,"çŁŃæĸĩ":4775,"åī§æĥħ":4776,"æĹģ":4777,"æĿ¨":4778,"çĵ¦":4779,"å¸Ń":4780,"ä¸¹":4781,"çļĦæ¤":4782,"èĥ½å¤Łåľ¨":4783,"ĠA":4784,"äºİæĺ¯":4785,"åĻª":4786,"æ°´åĴĮ":4787,"éģĹäº§":4788,"æµ·å¹³éĿ¢":4789,"å¤Ħäºİ":4790,"80":4791,"çľ¼çĿĽ":4792,"åĽŀå¿Ĩ":4793,"é¦¨":4794,"æİĴåĪĹ":4795,"çļĦè´¨éĩı":4796,"lo":4797,"è¿ĻæľīåĬ©äºİ":4798,"æ®ĭ":4799,"å°ıçĭĹ":4800,"å¤©çĦ¶":4801,"å¤©ä½ĵ":4802,"æĶ¶çĽĬ":4803,"æķĮ":4804,"çļĦåħ·ä½ĵ":4805,"ä»İæĸĩç«ł":4806,"æĿİæĺİ":4807,"å¿ĹæĦ¿":4808,"éľĢè¦ģæł¹æį®":4809,"è¢ĸ":4810,"ä¹Ķ":4811,"æ°ĳæĹı":4812,"çļĦä¸ĸçķĮ":4813,"æĿİåĽĽ":4814,"ä»Ķç»Ĩ":4815,"å¹¶æıĲé«ĺ":4816,"æ¤ħ":4817,"åĪĨæķ£":4818,"åĩĨç¡®çļĦ":4819,"çļĦæĬĢèĥ½":4820,"å©´":4821,"æ¥Ń":4822,"ãĢĭãĢĤ":4823,"æĪĳè§īå¾Ĺ":4824,"è¿ĺåī©ä¸ĭ":4825,"ç³Ĭ":4826,"ä¸ĢåĢĭ":4827,"è¯ĬæĸŃåĴĮæ²»çĸĹ":4828,"åĬłçĥŃ":4829,"æľīæ°§":4830,"èĬĤèĥ½":4831,"èĩªçĦ¶çİ¯å¢ĥ":4832,"æĬĢæľ¯çļĦåıĳå±ķ":4833,"æĦıå¤§åĪ©éĿ¢":4834,"ä½ĵç³»":4835,"æĭľ":4836,"åŃ¦èĢħ":4837,"çļĦæ³ķå¾ĭ":4838,"æĪĳåĢĳ":4839,"è¿Ļæĺ¯åĽłä¸º":4840,"å¼ķå¯¼":4841,"èĲĿåįľ":4842,"ä¸»äººåħ¬":4843,"åĩĨç¡®æĢ§åĴĮ":4844,"éĿ©åĳ½":4845,"çĥ¤ç®±":4846,"åĨ·éĿĻ":4847,"æ°ĳèŃ¦":4848,"ç§ĳæĬĢçļĦ":4849,"åĴĮä¼ĺåĮĸ":4850,"åĽŀæĬ¥":4851,"çĶ»éĿ¢":4852,"æĺİäºĨ":4853,"åıī":4854,"çļĦæ¸¸æĪı":4855,"æ¡ĥ":4856,"è´¸æĺĵ":4857,"æľīä»»ä½ķ":4858,"èĢģæĿ¿":4859,"æĺ¯æľĢ":4860,"æ¨¡åŀĭçļĦ":4861,"éĽķ":4862,"éĿŀå¸¸æĦŁè°¢":4863,"çĴĥ":4864,"å¹¶è¿Ľè¡Į":4865,"çļĦæĶ¹":4866,"åºĻ":4867,"éĶģ":4868,"åĪ¶æĪĲ":4869,"è§Ĥçľĭ":4870,"çĪ¸":4871,"åľ°éĿ¢":4872,"æľīæĹ¶":4873,"æ¿Ģåıĳ":4874,"ÙĦ":4875,"éĢĬ":4876,"æŀĿ":4877,"æıŃ":4878,"Ġ9":4879,"å°ıåŀĭ":4880,"æľ¬èº«":4881,"åĴĮä½¿çĶ¨":4882,"çļĦæĦıè§ģ":4883,"èĴĤ":4884,"è¯¦ç»ĨçļĦ":4885,"çļĦçľ¼":4886,"å®¢æĪ·çļĦ":4887,"æľīçĤ¹":4888,"çļĦæĶ¿":4889,"æĺ¥å¤©":4890,"åĴĮäººç±»":4891,"ä¸ºä½ł":4892,"ä¹Łä¸į":4893,"éĤ»":4894,"çĶŁæĪĲä¸Ģç¯ĩ":4895,"éĥ½åľ¨":4896,"åĮºåĪ«":4897,"è´¾":4898,"æĢ»ä½ĵ":4899,"å¤ľæĻļ":4900,"å¾¡":4901,"åĵĪåĪ©":4902,"é£Łè°±":4903,"éªĹ":4904,"å»ºçŃĳçī©":4905,"çĶ¨åĵģ":4906,"åıĹä¼¤":4907,"åİĺç±³":4908,"åĸ»":4909,"åĳ¨æľŁ":4910,"éĹľ":4911,"æ¶µçĽĸ":4912,"ä¸ĢæĿ¯":4913,"åĵ¦":4914,"èİİ":4915,"è·¯ä¸Ĭ":4916,"åľ¨å·¥ä½ľ":4917,"Ġæııè¿°":4918,"æĺ¯åĽłä¸º":4919,"åĬĽäºİ":4920,"ä¹Łå°±æĺ¯":4921,"çļĦåĲĮæĹ¶":4922,"è¼":4923,"èģĶåĲĪ":4924,"å§¿åĬ¿":4925,"äºĨå¾Īå¤ļ":4926,"åĳ¨æľ«":4927,"ä»¥ä¸ĭæĺ¯ä¸Ģéģĵ":4928,"å®Įç¾İ":4929,"éĩİçĶŁåĬ¨çī©":4930,"æĪĳæľĢè¿ĳ":4931,"å®¶æĹı":4932,"é¢Ī":4933,"æ»´":4934,"æİ¢è®¨äºĨ":4935,"å¯¹è±¡":4936,"æī¿æĭħ":4937,"ĠæıĲä¾Ľ":4938,"åĸ·":4939,"åľ°ä¸Ĭ":4940,"çİ¯ä¿ĿæĦıè¯Ĩ":4941,"å¾·åĽ½":4942,"å¼ºå¤§çļĦ":4943,"at":4944,"çĪ¶æ¯į":4945,"åĩ¡":4946,"è®¸å¤ļäºº":4947,"çļĦå¸®åĬ©":4948,"å¼Ĺ":4949,"ä»¥ä¸ĭæŃ¥éª¤":4950,"æĭĽèģĺ":4951,"æİ¢éĻ©":4952,"æ³ķéĻ¢":4953,"çĽ®æłĩåĴĮ":4954,"æ°ĽåĽ´":4955,"ä¸Ģéģĵ":4956,"æŁĶè½¯":4957,"æ¶ĪéĻ¤":4958,"70":4959,"ä¸ĢåĪĩ":4960,"å²Ĺ":4961,"å¹²åĩĢ":4962,"åıĹæ¬¢è¿İçļĦ":4963,"èĢį":4964,"åĨħçļĦ":4965,"ä½Ĩåľ¨":4966,"æ³¥":4967,"æµ¸":4968,"å¾Īå¥½çļĦ":4969,"å¼Ģå¤´":4970,"ç¯ĩåħ³äºİ":4971,"æ³ī":4972,"ä¸§":4973,"å°ıåŃ¦æķ°åŃ¦é¢ĺ":4974,"çļĦæ£":4975,"ä»¥éģ¿åħį":4976,"åĿĩè¡¡":4977,"ç»ıèĲ¥":4978,"åı¯ä»¥åĩıå°ĳ":4979,"ä»¥ä¸ĭæĺ¯ä¸Ģéģĵå°ıåŃ¦æķ°åŃ¦é¢ĺ":4980,"æľºéģĩ":4981,"ä¸»è¯Ń":4982,"ä¸Ģæľ¬":4983,"åĲİæĿ¥":4984,"èĦĨ":4985,"æĮĸæİĺ":4986,"å°ĺ":4987,"å®īéĿĻ":4988,"è½¨éģĵ":4989,"åĴĮä¸ªäºº":4990,"æ³Ĭ":4991,"å°Ĩåľ¨":4992,"çĲĥåĳĺ":4993,"èĮ¨":4994,"æĻºèĥ½æīĭæľº":4995,"æĳĩ":4996,"å½ĵä½ł":4997,"çĶ¢":4998,"å®ŀéĻħä¸Ĭ":4999,"æ»¡æĦıåº¦":5000,"èıĩ":5001,"åĽ¾ä¹¦":5002,"æ¢¦æĥ³":5003,"é¬":5004,"éĵº":5005,"åĪ¶åĵģ":5006,"æ©Ħæ¦Ħæ²¹":5007,"ç®¡çĲĨåĴĮ":5008,"ç«ŀäºīåĬĽ":5009,"è¯·æ±Ĥ":5010,"éĢļçŁ¥":5011,"å°½å¿«":5012,"æĪĸæľįåĬ¡":5013,"åħ¨åĽ½":5014,"å¦Ĥä½ķåľ¨":5015,"çİ»çĴĥ":5016,"è¯·åĳĬè¯īæĪĳ":5017,"åĶ¯ä¸Ģ":5018,"éĻ¤æŃ¤":5019,"æµħ":5020,"æļĤ":5021,"æĲº":5022,"æĽ´æį¢":5023,"æıĲåīį":5024,"ä¸įèī¯":5025,"éľĢè¦ģåľ¨":5026,"æĪĳä»¬ä¼ļ":5027,"åĬĽåŃ¦":5028,"åİŁåŃĲ":5029,"åĪĽéĢłåĬĽ":5030,"ä¿®å¤į":5031,"åı¯ä»¥ä»İ":5032,"æĹ¦":5033,"çĽĪ":5034,"æĽ´é«ĺçļĦ":5035,"ç¢ĳ":5036,"å°¤åħ¶æĺ¯":5037,"å®Ŀå®Ŀ":5038,"èĬ¬":5039,"æľĢéĢĤåĲĪ":5040,"äººæķ°":5041,"åŃ¦çĶŁçļĦ":5042,"åĮ¹éħį":5043,"ä½ĵçİ°":5044,"ç»Ļå®ļä¸Ģä¸ª":5045,"åĽŀå¤į":5046,"å±Ĥæ¬¡":5047,"è«":5048,"åĪĽéĢłåĩº":5049,"åħ±åĲĮåĬªåĬĽ":5050,"ä½¿åħ¶æĽ´åĬł":5051,"åı°æ¹¾":5052,"æ¢ģ":5053,"åĴĮåģ¥åº·":5054,"ç½²":5055,"çļĦæĳĦåħ¥":5056,"è®¨è®ºäºĨ":5057,"èĥľåĪ©":5058,"ä»Ĭå¹´":5059,"çļĦæ¢¦æĥ³":5060,"éĻ¤æŃ¤ä¹ĭå¤ĸ":5061,"æ¶Īæģ¯":5062,"æ¯ıå¹´":5063,"èĻ¾":5064,"èĪĩ":5065,"æĪĳä»¬åı¯ä»¥éĢļè¿ĩ":5066,"45":5067,"ä¸Ńæľī":5068,"çļĦæ¸ħ":5069,"ä¸ĢçĽ´åľ¨":5070,"éĩĮéĿ¢":5071,"åĲĽ":5072,"ä¹Ļ":5073,"éĩıåĴĮ":5074,"æĺ¯äººç±»":5075,"æĶ¯åĩº":5076,"åħĶåŃĲ":5077,"å®¶åºŃæĪĲåĳĺ":5078,"ĠãĢĬ":5079,"åĢ¾åĲ¬":5080,"ä¿Ħ":5081,"è¾ĥä½İ":5082,"ä½Ĩå®ĥ":5083,"éĢļè¿ĩå¯¹":5084,"æĻ®åıĬ":5085,"ä¸ŃæĢ§":5086,"å¿ĥçģµ":5087,"æ£ĭ":5088,"ãĢĤâĢĿ<|":5089,"å¼ºåĮĸ":5090,"ä¿ĿæĬ¤æĪĳä»¬çļĦ":5091,"çĩ¥":5092,"åı¯éĿłæĢ§":5093,"åĨ¬åŃ£":5094,"åħ¶å®ŀ":5095,"åĴĮçİ¯å¢ĥ":5096,"å«Įçĸĳäºº":5097,"å¯Ĩåº¦":5098,"è¿Ļä¹Ł":5099,"ä¸ŃåĽ½çļĦ":5100,"èħ¹":5101,"æ¯ķä¸ļ":5102,"äººéĻħåħ³ç³»":5103,"äººå·¥æĻºèĥ½åı¯ä»¥":5104,"æıĲä¾ĽæĽ´åĬł":5105,"åĽŀåĪ°":5106,"è¾ĥä¸º":5107,"ä¸ľäº¬":5108,"å¿ĥçĲĨåŃ¦":5109,"é«ĺè´¨éĩı":5110,"çİ©èĢį":5111,"ä»¥ä¸ĭéĹ®é¢ĺ":5112,"éĢ²è¡Į":5113,"å¥³åŃĲ":5114,"èħĬ":5115,"åĪł":5116,"29":5117,"çī¹æĢ§":5118,"æĶ¾ç½®":5119,"æłĩè®°":5120,"éĨĭ":5121,"è¡ĮæĶ¿":5122,"å½¢æĢģ":5123,"åĽĽä¸ª":5124,"Ġå¦Ĥæŀľ":5125,"å¹¿æ³ĽåºĶçĶ¨":5126,"è¿ģ":5127,"åĽ¢éĺŁåĲĪä½ľ":5128,"éĥ½èĥ½":5129,"æĮĩåįĹ":5130,"è®°èĢħ":5131,"é£ĺ":5132,"åŃ¦ä¹łæĸ°":5133,"èĤīç±»":5134,"è¿Ļæł·çļĦ":5135,"æĻĭ":5136,"æī¾åĪ°äºĨ":5137,"ç»Īäºİ":5138,"çĮ«åĴª":5139,"åĴĮçĶŁæ´»":5140,"æııç»ĺ":5141,"å¤§æķ°æį®":5142,"æĵ¦":5143,"å¯ĮåĲ«":5144,"äº¦":5145,"åĲĪæ³ķ":5146,"åħ¶ä¸ŃåĮħæĭ¬":5147,"è´¦æĪ·":5148,"æĮĩçļĦæĺ¯":5149,"åĢ¾åĲĳ":5150,"å°ıåįİ":5151,"çŁĽçĽ¾":5152,"å¾Īéļ¾":5153,"ä¸ªä½ĵ":5154,"çļĦæĬĢèĥ½åĴĮ":5155,"æī©å±ķ":5156,"çŃīæĬĢæľ¯":5157,"æī¿åıĹ":5158,"å¹½":5159,"æ¸ħæĸ°":5160,"Ġ*":5161,"åħģ":5162,"åĨĻä¸Ģä¸ª":5163,"èº«è¾¹":5164,"çļĦåĬĽéĩı":5165,"æĿ¥åĪ°":5166,"æĶ¯æĮģåĴĮ":5167,"æĺ¯éĿŀå¸¸":5168,"åįıåĬ©":5169,"æĺĨ":5170,"é¼»":5171,"æĭĴ":5172,"ĠØ":5173,"åŃ¦æľ¯":5174,"æĪĳä»¬åı¯ä»¥ä½¿çĶ¨":5175,"å§Ķåĳĺ":5176,"ä¸įç¡®å®ļ":5177,"åģ·":5178,"åĨĮ":5179,"é¥®é£Łä¹łæĥ¯":5180,"èĨľ":5181,"çļĦåĬ¨çī©":5182,"é«ĺéĢŁ":5183,"èĢĲå¿ĥ":5184,"Ġä½ł":5185,"èĥ½åĲ¦":5186,"èĩ´åĬĽäºİ":5187,"å®£å¸ĥ":5188,"å¾Īå¤§çļĦ":5189,"å¯Įæľī":5190,"ä¸Ģå¼ł":5191,"æıĲä¾ĽæĽ´":5192,"ÑĤ":5193,"ç»ĺçĶ»":5194,"ä»İè¿Ļç¯ĩæĸĩç«ł":5195,"èĤ¯å®ļ":5196,"æľīçĽĬ":5197,"çļĦçĬ¶æĢģ":5198,"çŃīä¿¡æģ¯":5199,"æķıæĦŁ":5200,"å°ĩ":5201,"æ¯Ķä¾ĭ":5202,"çļĦéľĢæ±ĤåĴĮ":5203,"èģĬå¤©æľºåĻ¨äºº":5204,"å±Ĭ":5205,"çľŁæŃ£çļĦ":5206,"åįıè®®":5207,"èµ·æºĲ":5208,"æĺ¯ä¸į":5209,"ĠAI":5210,"çļĦçĮ":5211,"éĿ¢ä¸´çĿĢ":5212,"ĠåĬłåħ¥":5213,"çļĦåıĳçĶŁ":5214,"it":5215,"å®ļå¾ĭ":5216,"å°Ĩä»¥ä¸ĭ":5217,"äººæĢ§":5218,"æĻ¯è§Ĥ":5219,"èĬĴ":5220,"éĸĭ":5221,"å¯¹æĤ¨":5222,"äººå·¥æĻºèĥ½æĬĢæľ¯çļĦ":5223,"çĶŁåĬ¨":5224,"éļĨ":5225,"è¯ĦåĪĨ":5226,"èĬĿå£«":5227,"èĭ±éĽĦ":5228,"åı¯ä»¥å¸®åĬ©åĮ»çĶŁ":5229,"é²¸":5230,"è¿ĺèĥ½":5231,"éĢļä¿¡":5232,"èĩªçĦ¶è¯Ńè¨Ģå¤ĦçĲĨæĬĢæľ¯":5233,"åİ¨æĪ¿":5234,"å°ĳå¹´":5235,"åľĨå½¢":5236,"åĺī":5237,"çļĦçĪ±æĥħ":5238,"çļĦæ¤į":5239,"çļĦæ°ĽåĽ´":5240,"è£ħä¿®":5241,"å»ºéĢł":5242,"ĸæģ¯":5243,"å±ħä½ı":5244,"åĮĸçŁ³":5245,"æīĭè¡¨":5246,"éĤĢè¯·":5247,"ç¿»çĤĴ":5248,"å¤ļæ¬¡":5249,"el":5250,"å·²çŁ¥":5251,"çļĦçĭĹ":5252,"å¯¼æ¼Ķ":5253,"åĴĮä¸Ģä¸ª":5254,"å®ĭ":5255,"å¹´äºº":5256,"åĴĮå¤ĦçĲĨ":5257,"æĪĺçķ¥":5258,"æħĪ":5259,"çĲĥéĺŁ":5260,"åĲĳéĩı":5261,"æĻĴ":5262,"å°Ĩå®ĥä»¬":5263,"å¨ľ":5264,"åĵªç§į":5265,"éĢīæĭ©ä¸Ģä¸ª":5266,"æ¼ł":5267,"çİ°ä»£ç¤¾ä¼ļ":5268,"æķ°ç»Ħ":5269,"æľīå®³":5270,"æ²Ļæ»©":5271,"çĶ¨éĢĶ":5272,"å£³":5273,"ç¾½":5274,"çī¹åĪ«æĺ¯":5275,"æ¸ħæ¥ļ":5276,"æ¼Ķè®²":5277,"åĲ¬åĪ°":5278,"é»ĳæļĹ":5279,"è¿Ļåº§":5280,"æľīäºº":5281,"éĢīæĭ©åĲĪéĢĤçļĦ":5282,"åıĭå¥½":5283,"çĽ¸äºĴä½ľçĶ¨":5284,"æľīæ°§è¿ĲåĬ¨":5285,"åľ°çĲĨ":5286,"æĬĢè¡ĵ":5287,"es":5288,"æľºåĻ¨ç¿»è¯ĳ":5289,"æĺİäº®":5290,"æŃ¥è¡Į":5291,"åĽŀçŃĶè¿Ļä¸ªéĹ®é¢ĺ":5292,"æĹĭå¾ĭ":5293,"ä¿ĿçķĻ":5294,"å®¶éĩĮ":5295,"åıĺéĩı":5296,"ç¬¬äºĮä¸ª":5297,"æĺ¯å¤ļå°ĳ":5298,"ç»³":5299,"åı¯ä»¥ä½¿":5300,"åĲĮä¹īè¯į":5301,"è¿Ļéģĵ":5302,"åľ¨æŁĲäºĽ":5303,"è¾¾æĪĲ":5304,"èī¾ç±³":5305,"Ñģ":5306,"å¤§è§Ħæ¨¡":5307,"æıĲåĩºäºĨ":5308,"GP":5309,"çļĦè¡¨çİ°":5310,"è¶ħå¸Ĥ":5311,"æľīæĹ¶åĢĻ":5312,"æĻ´":5313,"æ³½":5314,"äº«çĶ¨":5315,"çļĦå¤§å°ı":5316,"è¾Ĳ":5317,"èĥ¡èĲĿåįľ":5318,"æĹĭè½¬":5319,"æł¸å¿ĥ":5320,"èĸª":5321,"çľĭçĶµå½±":5322,"å°±åĥı":5323,"ä¸Ģéĥ¨":5324,"åı¯ä»¥å¸®åĬ©äººä»¬":5325,"æĹłè®ºæĺ¯":5326,"åľ¨è¿Ļç§į":5327,"ç§ĭå¤©":5328,"æĹ¥çĽĬ":5329,"æµĵéĥģ":5330,"çļĦä½ľçĶ¨":5331,"å¤ĩçĶ¨":5332,"æĥ§":5333,"é¢Ŀå¤ĸ":5334,"ä¹Łå°Ĩ":5335,"èĤł":5336,"é¤Ĳé¦Ĩ":5337,"åı¤åħ¸":5338,"ä¿ĿæĮģåģ¥åº·":5339,"å®¶éķ¿":5340,"çļĦçĭ¬":5341,"åı¯çĪ±":5342,"èĥĥ":5343,"çŃĶæ¡Īæĺ¯":5344,"å»ºç«ĭä¸Ģä¸ª":5345,"è¿Ľåº¦":5346,"çĽĲåĴĮ":5347,"æĵħ":5348,"åĩĨå¤ĩå¥½":5349,"æıĲåıĸåĩº":5350,"ä»¿ä½Ľ":5351,"å½ĵæĪĳä»¬":5352,"åľ¨è¿ĩåİ»":5353,"è¾Ľ":5354,"è¾ŀ":5355,"åĴĮç»ıæµİ":5356,"èĬĤçľģ":5357,"æĦŁçŁ¥":5358,"åľ¨æŃ¤":5359,"å½±çīĩ":5360,"ç»ıéªĮåĴĮ":5361,"ãĤ":5362,"ä¸ĢçĤ¹":5363,"æĪĺæĸĹ":5364,"çļĦæ³¨":5365,"å¤§å¤§":5366,"åĴĮåĪĽæĸ°":5367,"ĠæĻºèĥ½":5368,"è¿ľç¨ĭ":5369,"è¿Ł":5370,"ä¸īç§į":5371,"å¸¦æĿ¥çļĦ":5372,"è¯´è¯Ŀ":5373,"åĲĮæĹ¶ä¹Łåı¯ä»¥":5374,"æĪĲçĨŁ":5375,"æ¸©é¦¨":5376,"è¿ĲèĲ¥":5377,"éĿ¢ç²ī":5378,"å¦ĤæŀľæĪĳä»¬":5379,"ä¹Ĳè¶£":5380,"åĲĪçĲĨçļĦ":5381,"æĪĲè¯Ń":5382,"ä½łæĺ¯":5383,"çº¦ä¸º":5384,"åĩ¯":5385,"åı«åģļ":5386,"åĲ´":5387,"èµĭ":5388,"çļĦæĢĿç»´":5389,"æĭ¼åĨĻ":5390,"çļĦä¸įåĲĮ":5391,"åĴĮæĶ¹è¿Ľ":5392,"åĽ¾æ¡Ī":5393,"è¿ĩæ»¤":5394,"ç´łè´¨":5395,"å¼¦":5396,"æĹ¶éĹ´åĨħ":5397,"ä»£è°¢":5398,"æĢ§è´¨":5399,"ç»ĵæŀĦåĴĮ":5400,"åħ±åĴĮ":5401,"æľĢæĸ°çļĦ":5402,"çªĥ":5403,"çĥ¦":5404,"ç®Ģçº¦":5405,"ä¼ĺç§ĢçļĦ":5406,"å¹¼":5407,"æķĻæİĪ":5408,"èĩªåĬ¨é©¾é©¶æ±½è½¦":5409,"é½¿":5410,"æķ´çĲĨ":5411,"æľ¬è´¨":5412,"æīĵéĢł":5413,"è¯Ńæ°Ķ":5414,"ä¸ºæĪĳ":5415,"æİ¥çĿĢ":5416,"æĬ±æŃī":5417,"äºļæ´²":5418,"ä½©":5419,"çĶ¨æĪ·ä½ĵéªĮ":5420,"çħ§é¡¾":5421,"çĶŁæĢģçİ¯å¢ĥ":5422,"ä¸¾åĬŀ":5423,"çļĦä¸»è¦ģåĨħå®¹":5424,"æ¯ĶèµĽä¸Ń":5425,"éĿŀæ´²":5426,"éŃħåĬĽ":5427,"æī«":5428,"åĮĹæŀģ":5429,"æľīæīĢä¸įåĲĮ":5430,"ç¾İåĳ³çļĦ":5431,"æĪĳä»¬å¿ħé¡»":5432,"æīĢéľĢçļĦ":5433,"90":5434,"ä¸įå¤Ł":5435,"æİ¨æĸŃ":5436,"éĨī":5437,"åĹ¯":5438,"æµ´":5439,"æ¾³":5440,"æķĻèĤ²åĴĮ":5441,"æĦŁåĪ°éĿŀå¸¸":5442,"å¥Ķ":5443,"ä¼¦æķ¦":5444,"åĪļåĪļ":5445,"æł¹æį®èĩªå·±çļĦ":5446,"åĳĪçİ°åĩº":5447,"XXX":5448,"æĶ¾æĿ¾èº«å¿ĥ":5449,"å±ıå¹ķ":5450,"å¯¦":5451,"èĢĥèĻĳåĪ°":5452,"æĮĳæĪĺåĴĮ":5453,"åĨłåĨĽ":5454,"å¯¼èĩ´äºĨ":5455,"éĢĶå¾Ħ":5456,"æĻ¶":5457,"éĢĲæŃ¥":5458,"éħįæĸĻ":5459,"å§»":5460,"æĸľ":5461,"æĸĩæ¡£":5462,"çļĦæĢ§èĥ½":5463,"æ°¢":5464,"çĬ¹":5465,"éĢłæĪĲäºĨ":5466,"åħ¼":5467,"åŃ¦éĻ¢":5468,"å¸¦æľī":5469,"ä¸ĵä¸ļçļĦ":5470,"èģļä¼ļ":5471,"æĿ¥å¸®åĬ©":5472,"å±±å³°":5473,"ä¸ªäººä¿¡æģ¯":5474,"å±±èĦī":5475,"æµ·å¹³éĿ¢ä¸Ĭåįĩ":5476,"ä¼Ĳ":5477,"çĽ®çļĦæĺ¯":5478,"æ¼Ĥäº®":5479,"è¡Ģç®¡":5480,"æİ¨è¿Ľ":5481,"ä¼ļåľ¨":5482,"è®¤åı¯":5483,"åį¢":5484,"æŁĲç§į":5485,"åł´":5486,"å¹¿æ³ĽçļĦ":5487,"ä¸Ģåı¥è¯Ŀ":5488,"åĬ£":5489,"æ¯ģ":5490,"éĤ¦":5491,"æĶ¹åĨĻ":5492,"ä»¥ä¾¿æĽ´å¥½åľ°":5493,"å©´åĦ¿":5494,"èĩ³åħ³éĩįè¦ģ":5495,"æĭ¥åłµ":5496,"å¹¶ç»Ļåĩº":5497,"è¨Ī":5498,"åĭĻ":5499,"Ġå®ļæľŁ":5500,"ç½©":5501,"æĿĲè´¨":5502,"è¿ĲåĬ¨åĳĺ":5503,"å¤±ä¸ļ":5504,"æºª":5505,"èīºæľ¯åĵģ":5506,"æıĲä¾ĽæĽ´å¥½çļĦ":5507,"æ¶¯":5508,"çļĦçĹħ":5509,"åĽºå®ļ":5510,"éĿŀå¸¸éĢĤåĲĪ":5511,"æ¸ħçĲĨ":5512,"çĭĤ":5513,"ä¸ĭéĿ¢æĺ¯":5514,"åĬ¨æĢģ":5515,"æŁ¥è¯¢":5516,"æ¢¯":5517,"åĬłå·¥":5518,"åŃ¦çĶŁçļĦåŃ¦ä¹ł":5519,"å¦¹":5520,"èĢĢ":5521,"çŃĽ":5522,"æģĴæĺŁ":5523,"æĪĸç¼º":5524,"éĻ¶":5525,"éĺĲè¿°":5526,"æº¯":5527,"çļĦç¾İå¥½":5528,"æ³Ħéľ²":5529,"ä¸īè§Ĵ":5530,"æĪĳæĹłæ³ķ":5531,"å¼¯":5532,"ä¸ºæĪĳä»¬":5533,"è¢«è§Ĩä¸º":5534,"é±¼ç±»":5535,"ä¸ºäººç±»":5536,"åķıé¡Į":5537,"âĦ":5538,"æĿ¥è¿Ľè¡Į":5539,"èŃ°":5540,"èħ°":5541,"ï¼īãĢģ":5542,"åĪłéĻ¤":5543,"çĶµå½±çļĦ":5544,"ç¥ŀç§ĺçļĦ":5545,"ç¨į":5546,"éļ¾åº¦":5547,"åĵįåºĶ":5548,"å°ıåĿĹ":5549,"ä¹Łåı¯èĥ½":5550,"çĲĨæĥ³":5551,"åİĨåı²ä¸Ĭ":5552,"35":5553,"åıł":5554,"çĸ¼":5555,"åıĳçİ°äºĨ":5556,"åı¯èĥ½ä¼ļå¯¹":5557,"ä»¥åħį":5558,"åıĻ":5559,"æĸĳ":5560,"å°¼äºļ":5561,"å°½åĬĽ":5562,"æĿİåįİ":5563,"æĽ´å¿«åľ°":5564,"åľ°åĮºçļĦ":5565,"æĸ°äº§åĵģ":5566,"åħģè®¸":5567,"æ³¢çī¹":5568,"å¯»æ±Ĥå¸®åĬ©":5569,"èĢģäºº":5570,"åĲİæŀľ":5571,"ä½łä¼ļ":5572,"çŃīå¤ļç§į":5573,"åķĨåºĹ":5574,"ç¶ĵ":5575,"æķĳæı´":5576,"å©ļå§»":5577,"é¢¨":5578,"åĩºçīĪ":5579,"ä¸įåĪ°":5580,"ç¿ħ":5581,"æĿ¥åĩıå°ĳ":5582,"æĪĲåĬŁåľ°":5583,"åı¯ä»¥çĶ¨æĿ¥":5584,"éľĢè¦ģæĪĳä»¬":5585,"éħįåĲĪ":5586,"ãĥ":5587,"å¤º":5588,"èĩĤ":5589,"ä½ľä¸ļ":5590,"ä»¥ä¸ĭæĺ¯æĪĳ":5591,"æľĢå¤ļ":5592,"èħ»":5593,"åľ¨ä½¿çĶ¨":5594,"ä¸ªæľĪ":5595,"2022":5596,"æ¡Īä¾ĭ":5597,"æĪĳæ²¡æľī":5598,"çļĦæ»":5599,"çİ¯å¢ĥéĹ®é¢ĺ":5600,"åıĳéĢģ":5601,"åºŁå¼ĥ":5602,"è´¢å¯Į":5603,"åĮºåĿĹéĵ¾æĬĢæľ¯":5604,"çļĦæį":5605,"ä»ĸåĢĳ":5606,"æĮĳ":5607,"çļĦéĢŁåº¦":5608,"æĢİæł·":5609,"âĦĥ":5610,"å®¶åĽŃ":5611,"è¿ĺä¼ļ":5612,"à®":5613,"æĹ©æľŁ":5614,"ä¸¤äºº":5615,"å§ĵåĲį":5616,"çļĦç©ºéĹ´":5617,"èĥ¶":5618,"ä¹ŁåºĶè¯¥":5619,"çī©èģĶç½ĳ":5620,"èĤĸ":5621,"å°Ĭæķ¬çļĦ":5622,"ä¸įå¾Ĺ":5623,"é¥±":5624,"åįĩé«ĺ":5625,"ä¼ģä¸ļçļĦ":5626,"çļĦæĢĿæĥ³":5627,"æĲħæĭĮåĿĩåĮĢ":5628,"çļĦçī¹å¾ģ":5629,"éĩįè¦ģçļĦä½ľçĶ¨":5630,"ä»ĸäººçļĦ":5631,"æİ¥è¿ĳ":5632,"æĦıå¤ĸ":5633,"å°ıçİĭ":5634,"æ¡¶":5635,"åĽ½åĨħ":5636,"æŁľ":5637,"æ¡Ĩ":5638,"çļĦæ¤įçī©":5639,"ä¸ĭçļĦ":5640,"èĨĢ":5641,"ç²¾ç¡®":5642,"åĸľçĪ±":5643,"å¸ĮèħĬ":5644,"èĿ¶":5645,"çłĶç©¶è¡¨æĺİ":5646,"èĥİ":5647,"å°¿çĹħ":5648,"æĿ°åħĭ":5649,"çļĦæĻ®":5650,"è´¢äº§":5651,"èī³":5652,"å¿«éĢŁåıĳå±ķ":5653,"éĢĻäºĽ":5654,"è¾Ĳå°Ħ":5655,"åģļæ³ķ":5656,"éĿŀæ³ķ":5657,"æĹ¶éĹ´ç®¡çĲĨ":5658,"å¼Ģå¿ĥ":5659,"æĳĺ":5660,"åĿ¡":5661,"ĠĠĠĠĠĠĠĠ":5662,"éªĳèĩªè¡Įè½¦":5663,"å§Ĳ":5664,"éĢĨ":5665,"ä½Ĩä»ĸ":5666,"åİŁæĿ¥":5667,"åıĹåĪ°äºĨ":5668,"æ»ļ":5669,"æķħéļľ":5670,"çļĦåĲ«ä¹ī":5671,"æĦŁæ¿Ģ":5672,"çİĩåĴĮ":5673,"ä½łè®¤ä¸º":5674,"åį±å®³":5675,"ä¸įåı¯æĪĸç¼º":5676,"é¢ĦæĬ¥":5677,"åı¯ä»¥å°Ŀè¯ķ":5678,"çĨŁæĤī":5679,"çļĦæ¸©åº¦":5680,"åĩıèĤ¥":5681,"åĨĽäºĭ":5682,"çģ«æĺŁ":5683,"ĠB":5684,"äººä»¬å¯¹":5685,"å¦ĤæŀľæĤ¨éľĢè¦ģ":5686,"å°ıç»Ħ":5687,"ä»¥åĩıå°ĳ":5688,"æķ°æį®ä¸Ń":5689,"Ġéģ¿åħį":5690,"é¹¿":5691,"æŀļ":5692,"å°ıæĺİåĴĮ":5693,"éĥİ":5694,"åĬ¨çĶ»":5695,"æŀģå¤§":5696,"å¤ĸéĥ¨":5697,"äººç±»æ´»åĬ¨":5698,"å¾Į":5699,"çĵ£":5700,"æĮ«":5701,"æķĻç»ĥ":5702,"åı¯ä»¥å¾ĹåĪ°":5703,"è¤":5704,"æµģéĩı":5705,"26":5706,"ä¸ĢäºĽäºº":5707,"çıįæĥľ":5708,"çļĦæ³¨æĦı":5709,"27":5710,"åĮħå®¹":5711,"çĽĳçĿ£åŃ¦ä¹ł":5712,"çļĦæİĴæĶ¾":5713,"è´¯":5714,"åħ³æ³¨åĴĮ":5715,"ä¸ŃéĹ´":5716,"åįĵ":5717,"å¾Īå¿«":5718,"ĠçļĦ":5719,"äºīè®®":5720,"AP":5721,"æĽ´å¤§çļĦ":5722,"çĤī":5723,"çģµæĦŁ":5724,"åĽ¾ä¹¦é¦Ĩ":5725,"å°ĸ":5726,"as":5727,"ç³ĸå°¿çĹħ":5728,"åĴĮæıĲé«ĺ":5729,"å¯ĵ":5730,"æĹ±":5731,"ç©·":5732,"æīİ":5733,"éľį":5734,"åŃĺåľ¨ä¸ĢäºĽ":5735,"åģ¿":5736,"è¡«":5737,"ä¼łè¾ĵ":5738,"ä¹ŁéĿŀå¸¸":5739,"æĮ¯":5740,"æĦĪ":5741,"éĻĮ":5742,"è¿ĩå¤ļ":5743,"æĹ¶éĹ´è¡¨":5744,"éģĹä¼ł":5745,"ä¼ı":5746,"å¹¿éĺĶ":5747,"æ¿ĢçĥĪ":5748,"åħ¨éĥ¨":5749,"èĤĿ":5750,"å®¢äºº":5751,"åľ¨å®¶éĩĮ":5752,"çĶ¨æ°´":5753,"çħ®çĨŁ":5754,"åħ´è¶£çĪ±å¥½":5755,"éĿ¢æĿ¡":5756,"éļ¾å¿ĺ":5757,"è¿ĻäºĽæĬĢæľ¯":5758,"çĳ°":5759,"å°ıæľĭåıĭ":5760,"ç½ĳä¸Ĭ":5761,"ç±³é¥Ń":5762,"é¡ºåĪ©":5763,"è´·æ¬¾":5764,"åĿļæŀľ":5765,"ç»ĻäºĨ":5766,"çµ±":5767,"åĴĮæľĭåıĭ":5768,"åĽ¾çīĩ":5769,"è®°ä½ı":5770,"å°ıé¸Ł":5771,"à´":5772,"å¸½":5773,"åĪ¶éĢłä¸ļ":5774,"åħ¨çĲĥèĮĥåĽ´åĨħ":5775,"çĮľ":5776,"ä»»åĬ¡çļĦ":5777,"çīĪæľ¬":5778,"åĺ´":5779,"è¿Ļåľº":5780,"æĸĩåĮĸçļĦ":5781,"åĴĮç»ıéªĮ":5782,"æĥĳ":5783,"åĬ³åĬ¨":5784,"æ§":5785,"1000":5786,"çĸĳéĹ®":5787,"èĺĳ":5788,"å®ĥä»¬åľ¨":5789,"é¹ħ":5790,"è¨Ń":5791,"oo":5792,"è®¾è®¡ä¸Ģä¸ª":5793,"è¿Ī":5794,"åıįæĢĿ":5795,"èĭ±æĸĩ":5796,"å¹²çĩ¥":5797,"è´Łæĭħ":5798,"æĶ¿åºľåĴĮ":5799,"çī©çļĦ":5800,"æĪĳå¯¹":5801,"äººå·¥æĻºèĥ½åĴĮ":5802,"åİĭåĬĽåĴĮçĦ¦èĻĳ":5803,"èĥ½å¤Łå¸®åĬ©":5804,"æĪĳçĽ¸ä¿¡":5805,"è¿Ļæĺ¯ä¸Ģç§į":5806,"æĬ¢":5807,"åĩºçļĦ":5808,"å¸¦æĿ¥æĽ´å¤ļçļĦ":5809,"ä»£æĽ¿":5810,"åı¤è¯Ĺ":5811,"è¯Ńæ³ķéĶĻè¯¯":5812,"åĩºçİ°äºĨ":5813,"èĺĳèıĩ":5814,"çļĦæĢĿèĢĥ":5815,"æĪĳå¸ĮæľĽ":5816,"æ·ĩ":5817,"ä»¥åĲİ":5818,"å°ºå¯¸":5819,"ä½łå¯¹":5820,"çļĦçģµ":5821,"ä¸»åĬ¨":5822,"åıĳçĶŁäºĨ":5823,"ä¸Ģçīĩ":5824,"ä¸įå°ĳ":5825,"çļĦæİ¢":5826,"æľ±":5827,"å¤¹":5828,"å¯¹æ¯Ķ":5829,"æ°´åĪĨ":5830,"å¾Īé«ĺåħ´":5831,"åĪĹä¸¾":5832,"åĬ¨æľº":5833,"è¯¥åħ¬åı¸":5834,"è¿Ļä½į":5835,"æĸ¹å½¢":5836,"æĽ´åħ·":5837,"æľªæĿ¥åıĳå±ķ":5838,"éĽĩ":5839,"ä¹ĲåĻ¨":5840,"å°ıæĺİæīĭ":5841,"æĹħç¨ĭ":5842,"åħ³å¿ĥ":5843,"æĺ¯å¦Ĥä½ķ":5844,"èĢĮä¸į":5845,"çļĦä¸»è¦ģè§ĤçĤ¹":5846,"å¥¶éħª":5847,"åħ¶ä»ĸäºº":5848,"ĠP":5849,"èĶ¬èıľåĴĮ":5850,"å²Ĺä½į":5851,"éĩĳé¢Ŀ":5852,"æİ¥ç§į":5853,"æľīäºĽäºº":5854,"DNA":5855,"ä¹°äºĨ":5856,"çº¢æ¥¼":5857,"èĲ¥éĢł":5858,"195":5859,"è¿½æº¯":5860,"çĽ¸å½ĵ":5861,"äº¤æµģåĴĮ":5862,"äººå·¥æĻºèĥ½å°Ĩ":5863,"çĶŁæ´»çļĦ":5864,"éľľ":5865,"å¤§éĩıçļĦæķ°æį®":5866,"çŃīå¤ļä¸ª":5867,"ä¸ĸçķĮä¸Ĭ":5868,"å®³æĢķ":5869,"ç¢³æİĴæĶ¾":5870,"ou":5871,"æľºæ¢°":5872,"èį¡":5873,"ç¬Ķè®°":5874,"éĢĤéĩıçļĦ":5875,"åĬŀåħ¬å®¤":5876,"åĢ¼å¾Ĺä¸Ģ":5877,"åħ±åĴĮåĽ½":5878,"æĹĹ":5879,"è¿Ļä¹Ī":5880,"å¿ĺè®°":5881,"éĽ¾":5882,"èĥĨ":5883,"æ½ľåĬĽ":5884,"åĮħè£ħ":5885,"è°¨æħİ":5886,"ä»ĸæĥ³":5887,"Ġ$":5888,"æĽ´é«ĺæķĪ":5889,"ä¼ļå½±åĵį":5890,"çļĦçł´":5891,"æ¯ıä¸Ģä¸ª":5892,"ç»Ļå®ļçļĦæĸĩæľ¬":5893,"çļĦå£°éŁ³":5894,"æĿĥçĽĬ":5895,"çļĦæ¡":5896,"çº¿æĢ§":5897,"æĽ´æ·±åħ¥":5898,"è¿ĻäºĽæķ°æį®":5899,"\"ï¼Į":5900,"ç¨¿":5901,"çļĦæ°´æŀľ":5902,"åħ½":5903,"ä¸İä»ĸäºº":5904,"åĩłå¹´":5905,"åĬłåī§":5906,"èĵĦ":5907,"ç¿»è¯ĳæĪĲ":5908,"åĲĦä¸ªé¢ĨåŁŁ":5909,"æĴ°åĨĻ":5910,"éĻªä¼´":5911,"åľ¨æĪĳ":5912,"æĬĳéĥģ":5913,"å¤ªç©ºæİ¢ç´¢":5914,"âĢ¦âĢ¦":5915,"å·¾":5916,"ä»İä¸Ń":5917,"å«©":5918,"ä¾£":5919,"åĲĪæĪĲ":5920,"æ·ĩæ·ĭ":5921,"èº«ä½ĵçļĦ":5922,"æķ°çļĦ":5923,"ç´łé£Ł":5924,"éĻĮçĶŁ":5925,"ç²®":5926,"è¿ĻäºĽä¿¡æģ¯":5927,"åĪĨæĶ¯":5928,"çļĦç¨ĭ":5929,"æĭĵå±ķ":5930,"ä¸ĵä¸ļäººå£«":5931,"æ´»åĬĽ":5932,"ä»¥åħ¶":5933,"é¥¼å¹²":5934,"åıĳçĶµ":5935,"åĨ°æ·ĩæ·ĭ":5936,"çİ¯ä¿ĿçļĦ":5937,"çĻĮçĹĩ":5938,"è¯»ä¹¦":5939,"ä¼Ĺå¤ļ":5940,"åıĺå¾Ĺè¶ĬæĿ¥è¶Ĭ":5941,"ä¸¤ä¸ªäºº":5942,"çļĦåħī":5943,"åħ·ä½ĵæĿ¥è¯´":5944,"äººç¾¤":5945,"è¢Ń":5946,"åļ":5947,"æĭįæĳĦ":5948,"çº¢æ¥¼æ¢¦":5949,"çļĦç¾İä¸½":5950,"æĭĴç»Ŀ":5951,"è¿Ļåıª":5952,"èĪį":5953,"ä½Ĩä¹Ł":5954,"çİ¯å¢ĥä¸Ń":5955,"æĿľ":5956,"è¯·éļıæĹ¶":5957,"å°±ä¸ļæľºä¼ļ":5958,"è¯¥æĸĩæľ¬":5959,"è°ĥæĸĻ":5960,"çºªå¿µ":5961,"èįĴ":5962,"çĥŃéĹ¨":5963,"éĻ¤æ³ķ":5964,"å®ŀéĻħæĥħåĨµ":5965,"å®¶çļĦ":5966,"åĪĽéĢłä¸Ģä¸ª":5967,"å¯¹å¾ħ":5968,"ä¸ĢæĹ¦":5969,"åŀ«":5970,"éĩįåĬĽ":5971,"æĵħéķ¿":5972,"36":5973,"åħ¬å®ī":5974,"æł·æľ¬":5975,"å½¹":5976,"åĦ¿åŃĲ":5977,"çļĦç½ĳç«Ļ":5978,"åº¦çļĦ":5979,"èĤ©":5980,"è®©æĤ¨":5981,"åĩłç§į":5982,"èĽĩ":5983,"å²ģçļĦ":5984,"çĩĥçĥ§":5985,"æł¼å¼ı":5986,"çļĦæ±¡æŁĵ":5987,"æŁ¿":5988,"åįĩçº§":5989,"li":5990,"æ¯ıä¸ªäººçļĦ":5991,"è¿ĶåĽŀ":5992,"è¿Ļä½¿å¾Ĺ":5993,"åĲĮæĦı":5994,"åľ°çĲĥä¸Ĭ":5995,"å®ŀéĻħåºĶçĶ¨":5996,"æľĢå°ı":5997,"äººåĴĮ":5998,"ä¸¤ä¸ªåı¥åŃĲ":5999,"åķ¦":6000,"åľŁè±Ĩ":6001,"196":6002,"çļĦéĩįè¦ģç»ĦæĪĲéĥ¨åĪĨ":6003,"å¤ªå¤ļ":6004,"è§Ĥå¿µ":6005,"æĪĲä¸ºä¸Ģä¸ª":6006,"ç½Ĺé©¬":6007,"æĶ¹åıĺäºĨ":6008,"åģľæŃ¢":6009,"æĮĩç¤º":6010,"éŁ§":6011,"çļĦç¡":6012,"èµł":6013,"ç¦ıåĪ©":6014,"å¼ķäºº":6015,"å¸Ĥåľºä¸Ĭ":6016,"æĸ¯åĿ¦":6017,"æĥħåĴĮ":6018,"çŁ©":6019,"çĽ¸çŃī":6020,"åı¯æĮģç»ŃæĢ§":6021,"åĢºåĪ¸":6022,"å¯Ĥ":6023,"èĪªç©º":6024,"ãĢĤãĢĬ":6025,"äººå·¥æĻºèĥ½çļĦåºĶçĶ¨":6026,"èģĮè´£":6027,"çļĦæ¨¡åŀĭ":6028,"éĹ®é¢ĺåĴĮ":6029,"çĥĤ":6030,"çĶľçĤ¹":6031,"èµµ":6032,"ä¸ĬäºĨ":6033,"çļĦæĲ":6034,"ä¼łè¯´":6035,"çļĦæĥħæĦŁåĴĮ":6036,"ç¤¼çī©":6037,"åĢ¡":6038,"æĸ¹æ³ķæĿ¥":6039,"è¿ĺæľīåħ¶ä»ĸ":6040,"èĸ¯":6041,"è¯Ńä¹ī":6042,"èªŀ":6043,"ke":6044,"çļĦèĬ±":6045,"áĢ":6046,"æµĨ":6047,"ä¸ºä¸Ģä¸ª":6048,"ä¿ĥéĶĢ":6049,"ç§¯æŀģåıĤä¸İ":6050,"éĿ¢ä¸Ĭ":6051,"æľºåľº":6052,"é»ĳèĥ¡æ¤Ĵ":6053,"ĠÙ":6054,"çļĦå½¢å¼ı":6055,"å¿ĹæĦ¿èĢħ":6056,"æĶĢ":6057,"è®°å¾Ĺ":6058,"äºĳè®¡ç®Ĺ":6059,"çĸı":6060,"æĮĩä»¤":6061,"Ġ12":6062,"br":6063,"ç«Ł":6064,"å¹¶ä¸İ":6065,"äºĮåįģ":6066,"è¶ħçº§":6067,"æ¯ıäºº":6068,"æĪĳéĿŀå¸¸":6069,"åĴĮå¸Ĥåľº":6070,"æĢ§æł¼":6071,"à¹":6072,"è°ĭ":6073,"ĠĊ":6074,"ĠM":6075,"åĴĮåĨ³çŃĸ":6076,"é¢Ħè®¢":6077,"ä½ľä¸ºä¸ĢåĲį":6078,"æĪĴ":6079,"2016":6080,"åįĹæŀģ":6081,"æĪĳè¿ĺ":6082,"å®ģéĿĻ":6083,"æĪ·å¤ĸæ´»åĬ¨":6084,"æº¶":6085,"å¤ļå½©":6086,"è®¤è¯ĨåĪ°":6087,"é¢Ħè®¡":6088,"ä½łè§īå¾Ĺ":6089,"éģ¥":6090,"æĪĳä¸į":6091,"æ£ī":6092,"åľ¨è¿Ļç§įæĥħåĨµä¸ĭ":6093,"åŀĤ":6094,"å¸ĿåĽ½":6095,"197":6096,"è¿ŀç»Ń":6097,"Ġåĩıå°ĳ":6098,"èĢĮåľ¨":6099,"å±ķç¤ºäºĨ":6100,"æ¶¨":6101,"åī©ä½Ļ":6102,"æ¨¡ä»¿":6103,"æľįåĬ¡åĳĺ":6104,".ãĢĬ":6105,"è¡¨æł¼":6106,"æ¨¡æĭŁäººç±»":6107,"çºłæŃ£":6108,"åĩıç¼ĵ":6109,"æıĲé«ĺçĶŁäº§":6110,"çİ°éĩĳ":6111,"çļĦæĥħèĬĤ":6112,"æĺ¯åħ³äºİ":6113,"éĵĥ":6114,"å¥¶æ²¹":6115,"åĿĽ":6116,"æ²ĥ":6117,"çĶµè§Ĩåī§":6118,"è¡Ĺéģĵ":6119,"åģļèµ·":6120,"æĪĳè¦ģ":6121,"æĬ¹":6122,"ç»ĻæĤ¨":6123,"çļĦæłĩé¢ĺ":6124,"åĩºèī²çļĦ":6125,"äººåĬĽ":6126,"åĩºåıĳ":6127,"è®¢åįķ":6128,"çļĦåĬŁèĥ½":6129,"åŃ©åŃĲçļĦ":6130,"å¾ŀ":6131,"å®ĥåľ¨":6132,"çļĦç²¾ç¥ŀ":6133,"ä¸ŃåĽ½åı¤ä»£":6134,"è¿Ľç¨ĭ":6135,"ä¸įå¥½":6136,"ç¬¬ä¸Ģæ¬¡":6137,"å¿ĥä¸Ń":6138,"åĬªåĬĽåĴĮ":6139,"æķĪçĽĬ":6140,"ĠåĪ©çĶ¨":6141,"æıĲé«ĺäºĨ":6142,"150":6143,"pp":6144,"åĴĮé¢Ħæµĭ":6145,"äº¤å¾Ģ":6146,"æ¨ª":6147,"æıŃç¤º":6148,"AIç³»ç»Ł":6149,"æĸ°æĬĢæľ¯":6150,"æł¹æį®ä»¥ä¸Ĭ":6151,"ĸæģ¯åľ°":6152,"æĺ¯ä¸ºäºĨ":6153,"é¢ĦæľŁ":6154,"ç´§å¯Ĩ":6155,"å¹¶å¯¹":6156,"å¥¥è¿Ĳ":6157,"æ®¿":6158,"çļĦç¨³":6159,"ä¸ĢäºĽåħ³äºİ":6160,"ç»ĦæĪĲçļĦ":6161,"è¯ĨåĪ«åĩº":6162,"Ð»":6163,"æľĪäº®":6164,"ç¨³å®ļæĢ§":6165,"Ġ|":6166,"æ³ª":6167,"ä¸ªæ©ĻåŃĲ":6168,"æİªæĸ½æĿ¥":6169,"çļĦé¢ĨåŁŁ":6170,"id":6171,"ä¹Ĳè§Ĥ":6172,"æĸĩåŃ¦ä½ľåĵģ":6173,"éĥ½éľĢè¦ģ":6174,"åĲ¦åĪĻ":6175,"å¯ĨåĪĩ":6176,"å¤§æ°Ķå±Ĥ":6177,"çļĦåīį":6178,"ä¹Łè¦ģ":6179,"æĶ¯éĵħç¬Ķ":6180,"ä½Ĩå®ĥä»¬":6181,"è¿Ļå®¶é¤Ĳåİħ":6182,"è§Ĥæµĭ":6183,"è¯Ńåı¥":6184,"éļıçĿĢæĬĢæľ¯çļĦ":6185,"çİ«":6186,"çŁ¿çī©è´¨":6187,"æĪ¶":6188,"ï¼ħ":6189,"è¡¥åħħ":6190,"å®¢è§Ĥ":6191,"æĸ¯çī¹":6192,"å¥³çĶŁ":6193,"è¶ĬæĿ¥è¶Ĭå¤ļçļĦ":6194,"åľ°åĽ¾":6195,"æµĩ":6196,"æ²Ļåıĳ":6197,"çļĦæĹ¥":6198,"çĭ±":6199,"éĩĩçĶ¨äºĨ":6200,"ç©ĨæľĹ":6201,"æĸĩèīº":6202,"åľ°äº§":6203,"å´ĩ":6204,"ç¢°":6205,"åħ³éĶ®åŃĹ":6206,")ï¼Į":6207,"çį":6208,"æķ¸æĵ":6209,"è¾ĸ":6210,"ç©ĨæľĹçİĽ":6211,"ä¸Ģå®ļè¦ģ":6212,"æķ¸æĵļ":6213,"çļĦåĳ³éģĵ":6214,"å½»":6215,"ä¸Ģè¾Ĩ":6216,"300":6217,"ä¸Ģåħ±æľī":6218,"ä¼į":6219,"%ãĢĤ":6220,"åı¯è§Ĩ":6221,"çļĦé£İæł¼":6222,"åĴĮæĶ¾æĿ¾":6223,"ä¿¡æģ¯åĴĮ":6224,"ä¼ļæľī":6225,"æĽ´åĩĨç¡®åľ°":6226,"è°ľ":6227,"ç¼ĸåĨĻä¸Ģä¸ª":6228,"å¤ł":6229,"å¸ĮæľĽè¿ĻäºĽå»ºè®®":6230,"çĭ®åŃĲ":6231,"äºķ":6232,"äº§åĵģæĪĸæľįåĬ¡":6233,"åĩłä¹İ":6234,"è¿Ŀåıį":6235,"åĲĦèĩª":6236,"31":6237,"èĥ½å¤ŁæĽ´å¥½åľ°":6238,"çļĦæ°ĶåĢĻ":6239,"æ²³æµģ":6240,"èľĤèľľ":6241,"çļĦçł´åĿı":6242,"æĿ¥ç¡®å®ļ":6243,"å¥½äºĨ":6244,"ç®ĢåİĨ":6245,"è£Ķ":6246,"è¯Ĺäºº":6247,"æ±Ĺ":6248,"ç§ĳåŃ¦å®¶ä»¬":6249,"çİ«çĳ°":6250,"éļ¾é¢ĺ":6251,"åºĶå½ĵ":6252,"æĺ¯ä¸ª":6253,"å¸Ĥä¸Ńå¿ĥ":6254,"åĳĢ":6255,"å¼ºçļĦ":6256,"é¢ĳç¹ģ":6257,"åĪĽæĸ°åĴĮ":6258,"çĥŃçĪ±":6259,"åŁºäºİä»¥ä¸Ĭ":6260,"ç©¿è¶Ĭ":6261,"ä¸ĬåįĪ":6262,"ä¹ĭä¸Ń":6263,"æł¹æį®æıĲä¾Ľ":6264,"æľīæĦıä¹ī":6265,"çĶŁçĲĨ":6266,"çıłç©ĨæľĹçİĽ":6267,"åĴĮéģĵå¾·":6268,"ç½Ĺæĸ¯":6269,"è¿Ļå°ĨæľīåĬ©äºİ":6270,"æķ°çĻ¾":6271,"èĪĴéĢĤçļĦ":6272,"äººå¿ĥ":6273,"å»ºèŃ°":6274,"çĭ¼":6275,"48":6276,"ä¿¡å¿ĥ":6277,"åİĨç¨ĭ":6278,"èµ«":6279,"æŁ±":6280,"åĪĿåŃ¦èĢħ":6281,"éļĲç§ģä¿ĿæĬ¤":6282,"é»Ľ":6283,"çļĦæķĪçİĩåĴĮ":6284,"è»":6285,"æł¹æį®ç»Ļå®ļçļĦæĸĩæľ¬":6286,"çļĦæĮĩå¯¼":6287,"æĸĩçī©":6288,"è¿ĺè¦ģ":6289,"åĲ«éĩı":6290,"æĪĳä»¬åľ¨":6291,"å¿į":6292,"éĥ¡":6293,"ä»İäºĭ":6294,"åħħçĶµ":6295,"çĲĨè´¢":6296,"ä»¥ä¸ĭæĺ¯ä¸ĢäºĽå»ºè®®":6297,"åĸľæ¬¢åĲĥ":6298,"å°½åı¯èĥ½åľ°":6299,"ä¸įéĢĤ":6300,"æĢĴ":6301,"äº¤æį¢":6302,"è£ħå¤ĩ":6303,"ãĢĤâĢľ":6304,"éĵģè·¯":6305,"ç»ıæµİåıĳå±ķ":6306,"Ġæĺ¯":6307,"å¯ĴåĨ·":6308,"æĺĤ":6309,"ä¸ĭéĽ¨":6310,"æ³¢åĬ¨":6311,"éĩįè¦ģä½ľçĶ¨":6312,"ä»¥ä¸ĭåĩłçĤ¹":6313,"åı¯ä»¥éĢļè¿ĩåĪĨæŀĲ":6314,"éŃĤ":6315,"å¹¶ä½¿çĶ¨":6316,"æĪĳå·²ç»ı":6317,"ä¸ĭä¸Ģä¸ª":6318,"æľºåĻ¨åŃ¦ä¹łåĴĮ":6319,"ä¸Ģæ¬¡æĢ§":6320,"èī°":6321,"èŀįåħ¥":6322,"éĵľ":6323,"åĬłå¼ºå¯¹":6324,"æķħäºĭæĥħèĬĤ":6325,"æĤłä¹ħ":6326,"ä»ĺåĩº":6327,"åıĳè¡¨":6328,"çļĦçħ":6329,"å°ıæĺİçļĦ":6330,"æ¶Īå¤±":6331,"åı¯ä»¥åĪ©çĶ¨":6332,"çļĦæĻ¯çĤ¹":6333,"ĠéĢīæĭ©":6334,"çļĦå°ıè¯´":6335,"AIè¯Ńè¨Ģæ¨¡åŀĭ":6336,"çĶŁæ¶¯":6337,"åħ¬åĽŃéĩĮ":6338,"å¤§è±¡":6339,"éľĢè¦ģä½¿çĶ¨":6340,"åĲĦåĽ½":6341,"èµĶ":6342,"çĪ¶äº²":6343,"ÙĬ":6344,"éĻµ":6345,"ä¼łæī¿":6346,"çıłç©ĨæľĹçİĽå³°":6347,"è¿Ľè¡Įè°ĥæķ´":6348,"äº§çĶŁçļĦ":6349,"ä½Ĩä¸į":6350,"åħįè´¹":6351,"ä¸įæĸŃè¿ĽæŃ¥":6352,"æĺ¾å¾Ĺ":6353,"è¿Ĳç®Ĺ":6354,"çĽ¸åĲĮçļĦ":6355,"åĲįåı«":6356,"èħ¾":6357,"æ¢¨":6358,"æ°Ķè±¡":6359,"è¯·ç»ŃåĨĻ":6360,"çĶ·çĶŁ":6361,"GPT":6362,"ĠæľĢåĲİ":6363,"æĭĨ":6364,"æĤ¨åı¯ä»¥åľ¨":6365,"åĴĮèĶ¬èıľ":6366,"èĥĸ":6367,"å¦Ĥä½ķåĪ¶ä½ľ":6368,"ä»¥åīį":6369,"åĩĮ":6370,"ä¹Łèĥ½":6371,"åį³å°Ĩ":6372,"ä¸Ģéĥ¨åĪĨ":6373,"åĽĽå·Ŀ":6374,"å¹³éĿĻ":6375,"éŁµ":6376,"æľĢéĩįè¦ģçļĦæĺ¯":6377,"ç°":6378,"æ°´åĮĸåĲĪçī©":6379,"è¿ĻäºĽæĸ¹æ³ķ":6380,"çłĶç©¶äººåĳĺ":6381,"çļĦç©ºæ°Ķ":6382,"å¹¶è§£éĩĬ":6383,"ä¸ĸçķĮåĲĦåľ°":6384,"éĨĩ":6385,"æĢĸ":6386,"çļĦè§ĤçĤ¹":6387,"ä¹ĭæĹħ":6388,"åħĭçļĦ":6389,"èĢĮæĪĲ":6390,"éĹ»åĲį":6391,"çļĦç¨³å®ļ":6392,"å¼ķèµ·çļĦ":6393,"Ġ/":6394,"åħ¬è·¯":6395,"è®¾è®¡åĴĮ":6396,"æ¯ıä¸ªäººéĥ½åºĶè¯¥":6397,"åŃĹç¬¦ä¸²":6398,"è¯·ç»ĻæĪĳ":6399}